<unk>	0
<s>	0
</s>	0
,	-3.38401
.	-3.51315
▁và	-4.27172
▁của	-4.329
▁là	-4.47424
▁được	-4.64792
▁một	-4.69257
▁các	-4.77283
▁	-4.80897
▁trong	-4.82089
▁có	-4.86675
▁năm	-4.92747
▁"	-5.07264
▁(	-5.13559
▁với	-5.20836
▁vào	-5.27722
▁cho	-5.29713
▁tháng	-5.33194
▁đã	-5.34864
"	-5.40211
▁người	-5.42588
▁##	-5.43277
▁từ	-5.46976
▁ở	-5.47804
▁ngày	-5.4974
▁khi	-5.54647
▁thành	-5.6143
)	-5.64801
▁những	-5.67521
▁đến	-5.67544
▁tại	-5.676
▁không	-5.67977
▁ra	-5.71917
▁sau	-5.79301
▁để	-5.79323
▁công	-5.79389
▁đầu	-5.80131
▁này	-5.80944
-	-5.8366
▁quốc	-5.84461
▁sự	-5.87504
▁thể	-5.88269
▁gia	-5.90268
▁như	-5.93072
▁về	-5.96856
▁đó	-5.98621
▁giải	-6.00488
ng	-6.01665
▁chính	-6.01856
▁ông	-6.02646
▁con	-6.04233
▁trên	-6.05447
:	-6.06641
▁bị	-6.09959
▁hoàng	-6.11718
▁đội	-6.12305
▁bộ	-6.1332
▁nhà	-6.14803
▁số	-6.18435
▁thứ	-6.18555
▁lại	-6.19415
▁cũng	-6.19922
▁bản	-6.21029
▁nhất	-6.21918
▁nó	-6.22626
▁hai	-6.24264
▁do	-6.26486
▁hiện	-6.2935
▁động	-6.29832
▁sử	-6.32462
▁trung	-6.33202
▁thời	-6.333
▁theo	-6.33379
▁nhiều	-6.34078
s	-6.34347
▁đại	-6.3499
▁làm	-6.35343
▁phát	-6.35683
m	-6.3846
▁nhân	-6.38636
n	-6.3874
▁việc	-6.3915
▁nam	-6.39559
▁quân	-6.39648
t	-6.39716
▁thế	-6.39857
▁quan	-6.39953
▁cùng	-6.40458
▁hành	-6.40472
▁học	-6.42521
▁anh	-6.42995
▁kết	-6.43643
▁hình	-6.46503
▁khác	-6.47571
▁chỉ	-6.4959
▁đấu	-6.50405
▁viên	-6.50566
▁xuất	-6.50585
▁bóng	-6.5096
▁loại	-6.52342
;	-6.55493
▁chiến	-6.55557
▁họ	-6.55569
▁tiên	-6.56362
▁còn	-6.56486
▁ngựa	-6.56687
▁sinh	-6.56701
▁chức	-6.56949
▁dụng	-6.57031
▁tên	-6.57381
▁vòng	-6.5783
▁nước	-6.60559
▁hơn	-6.60863
▁tiếp	-6.61773
▁cách	-6.62716
▁diễn	-6.6319
▁đồng	-6.63466
▁định	-6.63735
▁chủ	-6.64525
a	-6.64561
),	-6.64969
▁cuộc	-6.65118
▁hội	-6.65692
▁nhưng	-6.65706
▁bởi	-6.65792
▁cao	-6.66339
▁cả	-6.67079
▁dân	-6.67386
▁lên	-6.67519
▁tự	-6.67645
ất	-6.68445
▁đá	-6.68655
▁màu	-6.69188
▁trở	-6.69272
▁kỳ	-6.69273
▁pháp	-6.69856
▁thường	-6.70139
▁hợp	-6.70844
▁trước	-6.71096
▁phim	-6.71127
▁cô	-6.7145
▁trận	-6.72144
▁vị	-6.72452
▁2	-6.72977
i	-6.74177
▁vật	-6.7555
▁đi	-6.75557
▁nhận	-6.76355
▁1	-6.7678
▁r	-6.77543
▁vô	-6.77831
▁thiên	-6.78457
▁giới	-6.78871
▁thống	-6.78925
c	-6.78981
▁phần	-6.79033
▁mà	-6.79175
▁cơ	-6.79804
▁nhật	-6.79816
▁b	-6.79848
▁rằng	-6.79912
▁sẽ	-6.79965
▁chúng	-6.8237
▁sản	-6.83158
▁trường	-6.84649
▁trình	-6.84917
▁hoặc	-6.85602
▁thực	-6.8587
).	-6.86217
▁gọi	-6.86875
▁khu	-6.88145
▁lập	-6.88226
▁phương	-6.88916
▁tiếng	-6.89078
▁thị	-6.89375
▁độ	-6.89495
▁tham	-6.89546
▁ba	-6.90127
▁lý	-6.90133
▁bằng	-6.90474
▁qua	-6.90921
▁phải	-6.91181
▁cá	-6.91214
▁vì	-6.91361
▁3	-6.91385
y	-6.916
▁hoa	-6.92158
▁thông	-6.92796
▁4	-6.92842
▁đường	-6.92843
▁lượng	-6.93919
▁địch	-6.9446
▁-	-6.94499
▁lớn	-6.94521
▁liên	-6.9453
▁giống	-6.94834
▁đối	-6.94835
▁tập	-6.94836
▁vụ	-6.95134
▁điều	-6.95446
▁mình	-6.95991
▁gồm	-6.97181
▁hậu	-6.97738
▁truyền	-6.98492
▁thức	-6.9931
▁tác	-6.99392
▁mới	-6.99567
▁tàu	-7.00083
▁bắt	-7.00151
▁thái	-7.00159
▁bay	-7.00271
▁loài	-7.01247
▁quyền	-7.01314
▁10	-7.01339
▁tạo	-7.01504
▁lần	-7.02029
▁hệ	-7.02185
▁s	-7.02697
▁việt	-7.03029
▁lực	-7.03474
▁điểm	-7.03696
▁k	-7.04293
▁thủ	-7.04583
▁nữ	-7.0464
▁ban	-7.04713
▁thuộc	-7.04953
▁đặc	-7.0516
▁văn	-7.05234
o	-7.05516
▁nhạc	-7.05638
▁tổ	-7.05758
▁gà	-7.06103
▁tế	-7.06447
▁đề	-7.06506
▁châu	-7.07066
▁hiệu	-7.07127
▁hay	-7.08221
▁sĩ	-7.08375
▁đây	-7.091
▁5	-7.09733
▁danh	-7.10116
▁điện	-7.10136
▁máy	-7.10424
▁tổng	-7.10542
▁tính	-7.10814
▁bao	-7.10973
▁thì	-7.11138
▁đông	-7.11222
▁mùa	-7.12153
▁cầu	-7.12455
▁phân	-7.12509
▁g	-7.14163
▁bình	-7.15996
▁tử	-7.16057
▁tây	-7.16417
▁hoạt	-7.16515
▁9	-7.16732
".	-7.1675
▁nghĩa	-7.17139
h	-7.17752
▁hàng	-7.17802
▁địa	-7.17964
▁bài	-7.18235
▁tới	-7.19663
",	-7.20325
▁phủ	-7.20367
▁thân	-7.20367
▁tiêu	-7.20368
▁tranh	-7.21082
▁lịch	-7.21086
▁triều	-7.21243
▁trị	-7.2139
▁bảo	-7.21481
▁bố	-7.22138
▁nên	-7.22674
▁mặt	-7.22687
▁chung	-7.22874
▁6	-7.22999
▁8	-7.23329
▁nhiên	-7.23401
▁nhóm	-7.23905
▁thiết	-7.24138
▁đảo	-7.24553
▁sách	-7.25127
▁năng	-7.25307
▁sống	-7.25836
▁vùng	-7.26047
▁giữa	-7.26694
▁ngoài	-7.26865
▁biến	-7.27204
▁bắc	-7.28067
▁ý	-7.28325
▁âm	-7.28396
▁vực	-7.28558
▁thuật	-7.28735
▁nguyên	-7.2874
▁phẩm	-7.28814
▁kế	-7.29006
▁7	-7.29197
▁hóa	-7.29329
▁dự	-7.29543
▁minh	-7.29646
g	-7.2966
▁t	-7.29798
▁đánh	-7.31265
▁biệt	-7.31505
▁kinh	-7.31604
▁phía	-7.318
▁toàn	-7.32569
▁mỹ	-7.32652
▁triển	-7.33009
▁nghiệp	-7.33189
▁giáo	-7.33344
▁cấp	-7.33461
▁thắng	-7.33645
▁chế	-7.33655
▁gian	-7.34105
▁nhiệm	-7.34904
▁chuyển	-7.34992
▁thi	-7.3533
▁nhau	-7.35468
e	-7.35943
▁12	-7.36204
▁đổi	-7.36516
▁cuối	-7.36551
▁thấy	-7.37016
p	-7.3702
▁tư	-7.37298
▁dưới	-7.37674
▁câu	-7.3778
▁ngôi	-7.37967
▁bà	-7.38194
▁cộng	-7.3833
▁ta	-7.38667
▁báo	-7.39111
▁m	-7.39132
l	-7.39257
▁đạo	-7.40332
▁phong	-7.40421
▁nói	-7.40504
▁ảnh	-7.41975
/	-7.4229
▁thay	-7.42471
▁11	-7.42761
▁xã	-7.42959
d	-7.4312
▁sân	-7.43146
▁thu	-7.44618
▁đất	-7.44998
▁nơi	-7.45157
▁đế	-7.45212
▁a	-7.45215
▁chất	-7.45885
▁dài	-7.46568
▁nội	-7.46569
▁trọng	-7.46766
▁đình	-7.46867
▁nghệ	-7.47087
▁thanh	-7.47302
▁tích	-7.47381
▁đơn	-7.47802
▁ăn	-7.48362
▁tình	-7.48854
▁tương	-7.48869
▁ca	-7.48966
▁dùng	-7.49136
▁tuy	-7.49165
▁cổ	-7.49343
▁khoả	-7.49387
▁phi	-7.49683
▁trí	-7.49977
▁c	-7.49981
▁sắc	-7.50209
▁chi	-7.50389
▁cung	-7.50763
▁trưởng	-7.50947
▁quả	-7.51298
▁đều	-7.51347
▁bảng	-7.52724
▁phố	-7.53208
▁chương	-7.53543
▁thần	-7.53669
▁tài	-7.53768
▁biết	-7.53985
▁hạng	-7.54196
▁biển	-7.54654
▁đặt	-7.54761
▁lông	-7.55255
▁bán	-7.55317
▁cái	-7.55432
▁vương	-7.55446
▁nhỏ	-7.55536
▁xe	-7.55815
▁đức	-7.56573
▁trợ	-7.57227
▁hải	-7.57358
▁đưa	-7.57568
▁hòa	-7.57584
▁trang	-7.57711
▁nuôi	-7.57911
▁tin	-7.58062
▁giá	-7.58321
▁phòng	-7.58488
b	-7.58716
▁tuổi	-7.58737
u	-7.59048
▁sông	-7.591
▁bên	-7.59201
▁vẫn	-7.59993
▁nguồn	-7.59993
▁tất	-7.60286
▁phục	-7.60572
▁thủy	-7.60714
▁d	-7.61519
▁cảnh	-7.61557
▁nhập	-7.61644
▁dương	-7.62122
▁tiến	-7.62294
▁nổi	-7.62386
▁dịch	-7.62489
▁phụ	-7.62495
▁thương	-7.62839
▁tục	-7.63351
▁trực	-7.63442
▁tỉnh	-7.6358
▁biểu	-7.64544
▁tấn	-7.6482
đang	-7.6619
▁ngữ	-7.66389
'	-7.66449
r	-7.66824
▁vai	-7.66921
▁viết	-7.67162
▁đô	-7.6717
▁sở	-7.67275
▁tộc	-7.67643
▁chiếc	-7.67643
▁mỗi	-7.67772
▁viện	-7.67907
▁đời	-7.68028
▁u	-7.68148
▁ty	-7.68463
▁đoàn	-7.6853
▁di	-7.68608
▁an	-7.6889
▁hát	-7.69426
▁dù	-7.69714
▁hoàn	-7.70078
▁gần	-7.7035
▁giao	-7.70459
▁dẫn	-7.70718
▁quyết	-7.70848
▁diện	-7.7111
▁tâm	-7.71263
▁quá	-7.7131
▁cúp	-7.71377
▁the	-7.71559
ây	-7.71747
▁dòng	-7.71778
▁ứng	-7.71896
▁sát	-7.72167
▁mang	-7.72465
▁kỷ	-7.72558
▁mạnh	-7.72698
▁sáng	-7.72843
▁chơi	-7.72955
▁chọn	-7.72955
▁n	-7.73084
▁ghi	-7.73236
▁vệ	-7.73361
▁tìm	-7.73756
▁hỗ	-7.73902
▁cứu	-7.74186
▁hàn	-7.74307
▁bệnh	-7.74434
▁lưu	-7.74575
▁mục	-7.74704
▁sang	-7.74798
▁đa	-7.74986
▁mắt	-7.75379
▁giả	-7.7565
▁nằm	-7.75789
▁trai	-7.7626
▁trắng	-7.76476
k	-7.76573
▁18	-7.76739
▁nay	-7.77065
▁no	-7.77223
▁lễ	-7.77447
▁lạc	-7.77513
▁tượng	-7.77592
▁liệu	-7.78848
▁triệu	-7.7885
▁giờ	-7.79015
▁dựng	-7.79245
▁ký	-7.79284
▁kiến	-7.79417
▁tăng	-7.79704
▁vận	-7.80268
▁xây	-7.8029
▁vi	-7.80323
▁ấn	-7.80624
▁yếu	-7.80843
▁lấy	-7.8085
▁giữ	-7.80855
▁tốt	-7.81381
▁lúc	-7.81578
▁chí	-7.8165
▁bỏ	-7.81761
▁kim	-7.82828
▁án	-7.83398
▁league	-7.83853
▁hồ	-7.84307
▁rộng	-7.8436
▁xác	-7.85204
▁đài	-7.85296
▁chim	-7.85375
▁đóng	-7.85484
▁thêm	-7.85566
▁hữu	-7.85863
▁nào	-7.86167
▁tay	-7.86245
▁cử	-7.86286
▁vũ	-7.86397
▁mặc	-7.86951
▁lan	-7.86975
▁luyện	-7.8785
▁chứng	-7.87894
▁cảm	-7.88104
▁tả	-7.88325
▁mô	-7.88417
▁chết	-7.88913
▁giúp	-7.89093
▁trò	-7.89292
▁đoạn	-7.89411
▁dạng	-7.8974
▁so	-7.9014
▁giành	-7.90673
▁đen	-7.90773
▁đạt	-7.91327
▁tuần	-7.91789
▁l	-7.91823
▁quần	-7.92445
▁hết	-7.92594
▁16	-7.92845
▁tiền	-7.92944
▁hạn	-7.93094
▁kể	-7.9326
▁hộ	-7.93559
▁quý	-7.93581
▁chuẩn	-7.93735
▁na	-7.93782
▁lai	-7.9403
▁long	-7.94361
▁hà	-7.94799
▁xếp	-7.94898
▁phản	-7.95178
▁hướng	-7.95244
▁v	-7.95673
▁mở	-7.95728
▁kích	-7.96059
▁cây	-7.96126
▁quản	-7.96249
▁yêu	-7.96561
▁kiện	-7.96896
▁mẹ	-7.97574
v	-7.9762
▁vấn	-7.97748
▁cần	-7.97749
▁thích	-7.97926
▁khoa	-7.98561
▁nghị	-7.9909
▁biên	-7.99294
▁thơ	-7.99295
▁âu	-7.99939
ra	-8.00066
▁vậy	-8.00161
▁quy	-8.00331
▁lời	-8.00354
▁of	-8.00578
▁sức	-8.00582
▁hạ	-8.00718
▁cha	-8.01281
▁20	-8.01594
▁gái	-8.0175
▁phiên	-8.01755
▁lãnh	-8.023
▁khả	-8.02446
▁vua	-8.02474
▁á	-8.02531
▁ít	-8.02668
na	-8.03192
▁em	-8.03621
▁gốc	-8.03717
▁niên	-8.03758
x	-8.03859
▁nguyễn	-8.03907
▁mạng	-8.04276
▁mất	-8.04326
▁lượt	-8.04445
▁luật	-8.0447
▁chia	-8.04537
▁scotland	-8.04808
▁bốn	-8.04835
▁huấn	-8.04992
▁du	-8.04993
▁chống	-8.06099
▁ngoại	-8.06308
▁thượng	-8.06669
▁sao	-8.06739
▁quay	-8.06782
▁15	-8.06858
▁nghiên	-8.06981
▁đứng	-8.07092
▁tinh	-8.07167
▁binh	-8.07786
▁cánh	-8.07843
▁luận	-8.07969
▁chân	-8.07994
▁thưởng	-8.08158
▁khí	-8.08377
▁huy	-8.08594
▁tiểu	-8.08742
▁da	-8.08742
▁độc	-8.08905
▁cố	-8.09036
▁lục	-8.09112
▁nếu	-8.09151
▁khởi	-8.093
▁rồi	-8.09306
▁xem	-8.09812
▁thư	-8.10259
▁bàn	-8.10267
▁tra	-8.10369
▁tuyển	-8.10843
▁khỏi	-8.11037
ma	-8.11192
▁17	-8.11417
▁hầu	-8.11624
▁đảng	-8.11645
▁sư	-8.11849
▁ngôn	-8.12151
▁phép	-8.12213
▁duy	-8.12515
▁đào	-8.12841
▁hưởng	-8.13004
▁khách	-8.13013
▁f	-8.13095
▁go	-8.13096
▁tưởng	-8.13203
▁14	-8.13418
▁la	-8.15133
▁phá	-8.1517
f	-8.15332
er	-8.1558
▁nghiệm	-8.16028
▁hiệp	-8.16068
ch	-8.16305
▁tuyên	-8.16442
▁chuyên	-8.16658
▁hi	-8.16756
▁đ	-8.17588
▁album	-8.1794
▁ngay	-8.18595
iểm	-8.18661
▁gặp	-8.18936
▁bạch	-8.19197
▁san	-8.19221
▁phổ	-8.19665
▁bại	-8.20447
▁lớp	-8.20636
▁chiếu	-8.21068
▁đổ	-8.21135
▁new	-8.21539
▁đôi	-8.21915
▁riêng	-8.21933
▁ma	-8.2211
▁vàng	-8.2222
▁tòa	-8.22377
▁–	-8.22678
la	-8.22912
2	-8.23087
▁xuống	-8.23242
▁doanh	-8.23264
▁mã	-8.23802
▁mẫu	-8.24348
▁tiết	-8.24575
▁thúc	-8.24617
ến	-8.24652
▁cáo	-8.249
▁moon	-8.25061
▁kỹ	-8.25467
▁dụ	-8.25571
")	-8.25638
▁hồi	-8.25644
▁họa	-8.25969
▁30	-8.26296
▁to	-8.26312
▁tố	-8.26475
▁bờ	-8.27121
▁vài	-8.27601
▁cải	-8.27646
▁trứng	-8.27756
▁lá	-8.27961
▁tối	-8.28322
▁thịt	-8.28407
▁chưa	-8.28466
▁thử	-8.28667
▁đăng	-8.28672
▁chú	-8.28734
▁nha	-8.28803
▁chiếm	-8.28924
▁dựa	-8.29258
–	-8.29756
▁chuyện	-8.29838
▁tướng	-8.29838
▁lệ	-8.30036
▁nhằ	-8.30071
▁đồ	-8.30268
▁trẻ	-8.30319
▁2015	-8.30634
▁in	-8.30991
ta	-8.31224
▁đỏ	-8.31275
▁13	-8.31687
▁cửa	-8.31702
▁mọi	-8.31986
in	-8.32025
▁2016	-8.32378
▁muốn	-8.32455
▁đốc	-8.32455
▁hiếu	-8.32737
▁huyện	-8.32743
▁xu	-8.32778
▁thuyết	-8.32938
▁chữ	-8.32952
▁giám	-8.33052
▁chạy	-8.33192
▁đàn	-8.33398
▁quảng	-8.33587
▁khai	-8.33931
the	-8.34233
▁thăm	-8.34652
▁núi	-8.35162
▁lạp	-8.35166
&	-8.35324
▁bổ	-8.35412
▁đủ	-8.3565
▁giai	-8.35744
▁kéo	-8.36395
to	-8.36521
▁miền	-8.36647
▁lợi	-8.36894
▁tôn	-8.3692
▁thất	-8.37193
▁lệnh	-8.37665
▁dung	-8.37739
▁tuyến	-8.38227
ri	-8.38358
▁trái	-8.38686
▁quanh	-8.38752
▁sa	-8.3894
▁sóng	-8.38941
▁tạng	-8.38969
▁nữa	-8.39182
▁phối	-8.39207
▁coi	-8.39281
le	-8.39445
▁thừa	-8.39449
▁tức	-8.39456
▁y	-8.3949
▁nga	-8.3985
▁cứ	-8.39934
▁hồng	-8.4025
▁rõ	-8.40498
▁bức	-8.40503
▁đích	-8.40751
▁giảm	-8.40811
▁2014	-8.40917
▁môi	-8.40947
▁ngắn	-8.41029
us	-8.41181
ailor	-8.41322
▁cư	-8.41674
1	-8.41831
▁xanh	-8.4208
▁ấy	-8.42373
▁tu	-8.42522
▁tín	-8.42538
▁bầu	-8.4261
▁cực	-8.4263
▁áp	-8.42696
▁phật	-8.42871
z	-8.43096
▁rời	-8.43138
▁ống	-8.43676
▁phạm	-8.44218
▁đĩa	-8.44218
▁lâu	-8.44227
▁hạt	-8.44475
▁dàn	-8.45078
▁nông	-8.45113
▁phóng	-8.45263
▁ủy	-8.45589
▁chịu	-8.45883
▁loạt	-8.4669
▁chuyến	-8.46692
es	-8.46764
▁de	-8.46812
▁kính	-8.47285
▁nền	-8.47285
th	-8.47538
▁cạnh	-8.47538
▁nhanh	-8.47828
▁video	-8.48113
▁trấn	-8.48377
▁trúc	-8.48986
▁h	-8.49527
3	-8.49656
▁&	-8.49877
▁bạn	-8.49882
▁môn	-8.50048
▁điển	-8.50085
▁cấu	-8.50374
▁nhìn	-8.50747
▁tỷ	-8.50956
▁suất	-8.51021
▁gì	-8.51082
▁2013	-8.51222
▁24	-8.51311
▁thoại	-8.51535
▁cập	-8.51545
▁phó	-8.51585
ko	-8.51629
▁quang	-8.51838
▁đáng	-8.51878
▁("	-8.52002
▁thờ	-8.52005
▁tôi	-8.52053
▁25	-8.53089
▁p	-8.53206
▁e	-8.53635
▁al	-8.53652
▁chúa	-8.53769
▁thiếu	-8.53903
▁thổ	-8.54081
▁bắn	-8.54498
▁giết	-8.54504
▁gen	-8.54686
▁mức	-8.54799
▁chiều	-8.54799
▁trụ	-8.54876
▁sơn	-8.54945
▁21	-8.55096
▁x	-8.55288
▁19	-8.55354
▁ii	-8.55618
▁căn	-8.55646
▁tồn	-8.5602
ro	-8.56241
amp	-8.56325
▁i	-8.56549
▁xuyên	-8.56626
▁nghi	-8.56646
▁xả	-8.56833
▁football	-8.56933
▁hại	-8.57137
▁băng	-8.57266
...	-8.57436
."	-8.57475
▁thuận	-8.57551
▁sáu	-8.57554
▁2016,	-8.57895
da	-8.57933
▁thấp	-8.58176
▁hiến	-8.58244
▁cụ	-8.58361
▁kịch	-8.588
▁fujiwara	-8.58847
re	-8.58952
▁o	-8.59287
▁ô	-8.59371
▁uy	-8.59714
▁thập	-8.60065
▁dễ	-8.60067
▁sâu	-8.60089
▁mua	-8.60433
▁tr	-8.60505
al	-8.60579
▁27	-8.60771
▁dục	-8.60869
▁loan	-8.60898
▁bồ	-8.61024
▁'	-8.61188
no	-8.61391
▁22	-8.61928
▁đầy	-8.61991
▁chấp	-8.62017
lt	-8.62445
▁trạng	-8.62642
▁lộ	-8.62831
7	-8.62875
▁xử	-8.62967
▁khó	-8.63772
▁28	-8.63895
▁vừa	-8.64287
▁tốc	-8.64472
▁trách	-8.64955
đô	-8.65238
▁hàm	-8.65291
▁chứa	-8.65337
ẻ	-8.658
▁tông	-8.65871
▁sai	-8.65959
▁linh	-8.66019
▁tai	-8.66086
▁song	-8.66547
▁lợn	-8.66634
▁tạp	-8.66646
▁mi	-8.66691
4	-8.67093
▁[	-8.67282
▁nối	-8.67315
▁tước	-8.6732
▁ngành	-8.67339
▁đột	-8.67616
▁đương	-8.67662
▁khang	-8.67693
▁hạm	-8.67987
▁mối	-8.68001
te	-8.68065
▁sơ	-8.68547
▁nặng	-8.68692
▁khá	-8.68724
tiếng	-8.68922
▁bước	-8.69047
▁and	-8.69125
▁sứ	-8.6914
▁ga	-8.69228
▁tái	-8.69479
sa	-8.69684
▁26	-8.69811
▁ví	-8.69864
▁truyện	-8.70111
▁càng	-8.70594
▁tải	-8.70705
▁thật	-8.70822
▁pháo	-8.71299
an	-8.71334
▁thao	-8.71518
▁ninh	-8.71868
▁rút	-8.71872
▁đảm	-8.71884
▁nạn	-8.71946
el	-8.72159
▁kênh	-8.72226
▁dấu	-8.72254
▁cảng	-8.7234
ka	-8.72446
▁bí	-8.72675
▁đệ	-8.72774
▁hán	-8.73003
▁lĩnh	-8.73306
▁tịch	-8.73307
ba	-8.73507
▁đe	-8.73572
▁singapore	-8.7371
▁cai	-8.73813
ki	-8.73907
en	-8.73959
▁hoạch	-8.74034
▁2012	-8.74766
▁cờ	-8.74774
▁đẹp	-8.75135
▁ngũ	-8.75135
▁thánh	-8.75506
ắp	-8.75586
▁mái	-8.75934
▁km	-8.76528
▁bá	-8.76534
▁xa	-8.76793
▁bang	-8.76924
▁nhờ	-8.77001
▁lang	-8.77173
or	-8.7775
▁buộc	-8.77757
▁kiếm	-8.77758
▁tứ	-8.78025
man	-8.78131
▁cầm	-8.78177
▁tân	-8.78271
▁trục	-8.78282
▁góp	-8.78518
▁2008	-8.78555
▁lòng	-8.78591
w	-8.78729
▁quận	-8.78928
▁chu	-8.78949
ya	-8.79026
8	-8.79045
▁càn	-8.79209
▁suốt	-8.79286
▁sửa	-8.79306
▁lê	-8.79456
▁trưng	-8.79672
▁thiện	-8.79683
âm	-8.79686
▁trì	-8.80053
▁yên	-8.80061
▁bảy	-8.80087
▁thẳng	-8.80114
▁hãng	-8.80118
gt	-8.80195
uổi	-8.80265
▁phái	-8.80283
▁trời	-8.80449
▁tống	-8.80493
▁29	-8.81598
▁phê	-8.81628
▁dần	-8.82029
6	-8.82114
▁chữa	-8.82238
▁cuốn	-8.8235
▁niệm	-8.82417
▁tờ	-8.82429
▁thụy	-8.82506
▁“	-8.82779
▁luân	-8.82827
▁ước	-8.82876
ar	-8.83095
▁ai	-8.83141
▁phận	-8.83216
▁manga	-8.8324
▁trùng	-8.83266
gi	-8.83326
do	-8.83357
▁chủng	-8.83372
▁wales	-8.83619
▁đua	-8.83621
on	-8.8366
▁đẻ	-8.84055
▁vượ	-8.84302
▁áo	-8.847
▁cựu	-8.84851
▁đêm	-8.84854
▁đền	-8.85025
▁2017	-8.85071
▁2010	-8.85335
▁trừ	-8.85456
▁hy	-8.85474
▁giác	-8.8564
▁thuần	-8.8566
▁giang	-8.85663
▁trả	-8.85959
▁tặng	-8.86062
▁luôn	-8.86166
ing	-8.86315
trao	-8.86445
▁bãi	-8.86475
▁soát	-8.8648
▁23	-8.86524
▁khẩu	-8.86891
▁toán	-8.86894
▁lâm	-8.8693
▁thiệu	-8.87307
▁trần	-8.8731
▁vốn	-8.87336
▁tam	-8.87337
▁lọ	-8.87484
]	-8.87548
▁cận	-8.87725
▁sắt	-8.87725
▁xuân	-8.87734
▁cup	-8.87762
▁pha	-8.8779
ca	-8.87814
▁khảo	-8.87927
ne	-8.88008
▁hôn	-8.8801
lo	-8.88447
▁mại	-8.88572
ku	-8.88929
▁khúc	-8.88991
▁mật	-8.89025
▁anime	-8.8903
▁kg	-8.89259
mi	-8.8973
▁hương	-8.89847
▁võ	-8.89848
▁trống	-8.89871
▁cũ	-8.90518
▁2016.	-8.9056
▁formula	-8.91153
▁phút	-8.91259
▁nhiệt	-8.92009
▁100	-8.92238
▁trại	-8.92887
▁chùa	-8.92895
▁cậu	-8.92896
▁kiểu	-8.92911
▁tỉ	-8.93058
-19	-8.93118
▁ánh	-8.93227
▁trào	-8.93804
ed	-8.93991
▁lo	-8.93993
▁xét	-8.94235
▁thảo	-8.94272
▁phù	-8.94421
▁rừng	-8.94686
▁co	-8.94783
▁vịnh	-8.95214
▁tường	-8.95605
▁2011	-8.95883
▁khiển	-8.96027
▁màn	-8.96162
me	-8.96633
▁đực	-8.96942
▁phúc	-8.97029
▁bậc	-8.97403
▁suy	-8.97489
▁ủng	-8.97888
▁giản	-8.97903
▁thí	-8.98298
▁trăng	-8.98337
▁cắt	-8.98798
▁nhánh	-8.98799
▁thuyền	-8.98801
▁mười	-8.99268
▁tầng	-8.99315
▁đuôi	-8.9974
st	-8.99867
▁giáp	-8.99996
▁khắc	-9.00216
▁xương	-9.00217
▁diệt	-9.01174
▁xứ	-9.01404
▁đà	-9.01497
▁dạy	-9.01672
ter	-9.0193
▁thoái	-9.02132
▁tá	-9.02185
▁phí	-9.02285
▁j	-9.02513
▁lẫn	-9.02617
ha	-9.02822
▁thù	-9.03252
li	-9.03261
vi	-9.03271
▁vợ	-9.03427
-20	-9.0355
▁york	-9.03595
▁tội	-9.03607
▁hiểu	-9.03621
▁làng	-9.03874
go	-9.0398
▁bé	-9.04083
ho	-9.04132
▁2009	-9.04932
ga	-9.04939
▁vọng	-9.0508
▁ngược	-9.05081
▁hút	-9.05122
hẳng	-9.05401
▁cặp	-9.0558
▁nhĩ	-9.05649
▁ha	-9.06261
ti	-9.06479
▁ngang	-9.06568
▁trân	-9.0659
▁siêu	-9.06603
▁bò	-9.06657
de	-9.06896
▁ngăn	-9.07607
se	-9.07931
▁mãn	-9.07943
con	-9.07952
▁bày	-9.08144
▁ka	-9.08366
▁nỗ	-9.08395
▁mạc	-9.08565
▁tuyệt	-9.08634
▁vân	-9.08639
▁chảy	-9.09154
▁thăng	-9.09155
▁nghe	-9.09162
▁nâng	-9.09673
▁dữ	-9.09676
▁xúc	-9.09678
▁chăn	-9.09892
▁nổ	-9.10089
ji	-9.10104
▁lựa	-9.10196
▁thước	-9.10197
ke	-9.10302
20	-9.10489
di	-9.10511
▁me	-9.10588
▁bạc	-9.10708
▁đỡ	-9.10727
▁đỉnh	-9.11254
▁division	-9.11256
▁tụ	-9.11453
ầm	-9.11455
0	-9.11721
▁hủy	-9.11788
▁rơi	-9.11796
▁cm	-9.12164
▁chó	-9.12177
▁khắp	-9.12329
▁su	-9.12345
▁tán	-9.1261
▁thuốc	-9.12856
▁ly	-9.13293
▁tắt	-9.13397
▁ưu	-9.13397
▁giấy	-9.13417
”	-9.13486
ck	-9.13604
▁thú	-9.1377
▁lao	-9.13794
▁bào	-9.13904
▁khánh	-9.14019
▁ẩn	-9.14198
▁xạ	-9.14495
▁bật	-9.14564
wa	-9.14691
mm	-9.14891
▁nhẹ	-9.15036
▁lưới	-9.15036
▁nâu	-9.15058
j	-9.15285
▁thụ	-9.15383
▁kháng	-9.15479
hậm	-9.15487
▁lược	-9.15591
▁hơi	-9.15591
▁thọ	-9.15663
bo	-9.15765
▁tiện	-9.16145
▁cỏ	-9.16159
▁chirita	-9.16481
▁truy	-9.16698
▁ukraina	-9.16703
▁đáp	-9.16888
▁dưỡng	-9.17265
▁mộ	-9.17375
▁ho	-9.17444
5	-9.17543
shi	-9.17722
▁nửa	-9.1783
▁súng	-9.17855
▁lương	-9.17887
▁hôm	-9.17965
▁xin	-9.1856
hồng	-9.1932
▁w	-9.19424
▁hỏi	-9.19544
▁chỗ	-9.19549
▁50	-9.20068
▁khối	-9.20144
▁loạn	-9.20153
▁tùy	-9.20201
▁31	-9.20236
▁mo	-9.20397
▁gắn	-9.20636
chi	-9.20648
▁chép	-9.20716
▁trải	-9.20881
nh	-9.20959
▁nghiêm	-9.21289
▁trương	-9.21293
▁xâm	-9.21318
za	-9.21478
▁tám	-9.21516
▁pa	-9.21873
▁philippines	-9.21908
▁tách	-9.22013
▁phú	-9.22245
et	-9.22433
▁giọng	-9.22468
▁tri	-9.22558
ry	-9.22738
người	-9.22847
▁đúng	-9.23063
▁đẩy	-9.23063
▁mẽ	-9.23069
▁nguy	-9.23079
▁cam	-9.23278
é	-9.23493
ss	-9.23536
un	-9.23649
▁hùng	-9.23662
▁mềm	-9.23662
▁vĩnh	-9.23672
▁sớm	-9.23702
mo	-9.24107
um	-9.24162
gửi	-9.24265
▁đọc	-9.24265
co	-9.24395
pa	-9.24427
▁bối	-9.24537
▁vịt	-9.24567
(	-9.24793
▁lửa	-9.24871
▁trồng	-9.24874
▁usd	-9.24886
▁xô	-9.24904
▁cục	-9.25106
▁dọc	-9.2548
▁samoa	-9.25481
▁tránh	-9.25507
▁ổn	-9.25509
ông	-9.25844
▁rider	-9.25918
▁()	-9.25941
▁cháu	-9.26094
▁đập	-9.26105
▁lính	-9.26112
▁park	-9.2629
một	-9.26539
▁nhì	-9.26545
▁úc	-9.26711
ur	-9.26845
▁tròn	-9.27214
▁phạt	-9.27332
▁entertainment	-9.2734
▁ràng	-9.27348
ia	-9.27402
▁gi	-9.27859
▁thoát	-9.27957
▁máu	-9.27966
ja	-9.27969
▁tim	-9.28154
▁be	-9.28169
▁tang	-9.28341
▁sung	-9.28489
▁cấm	-9.28586
_	-9.28992
il	-9.29021
▁món	-9.29173
▁giảng	-9.29173
▁đợt	-9.29219
▁tắc	-9.29252
▁cường	-9.29256
▁gắng	-9.29292
▁vây	-9.29391
nin	-9.29448
▁bo	-9.29561
9	-9.2971
▁chặn	-9.29788
▁khơi	-9.29857
▁chóng	-9.30148
ly	-9.30339
▁hiếm	-9.30509
▁national	-9.30542
▁1944	-9.30688
▁2018	-9.30723
▁côn	-9.30746
ni	-9.3101
▁chánh	-9.31154
▁ngọc	-9.31199
▁world	-9.31235
▁lẽ	-9.31795
▁tokyo	-9.31839
▁vẻ	-9.3186
-17	-9.31895
▁ni	-9.3203
▁kê	-9.32441
▁trump	-9.32445
▁nhớ	-9.32447
▁mời	-9.32475
▁dinh	-9.32498
id	-9.32505
▁khóa	-9.3271
▁khăn	-9.32716
▁li	-9.32881
▁(19	-9.33588
▁tần	-9.33718
▁chăm	-9.3377
▁vinh	-9.33815
▁tô	-9.33832
os	-9.33868
ic	-9.33956
▁khán	-9.33958
▁ương	-9.33998
▁le	-9.34134
bu	-9.34219
▁lỗ	-9.34324
▁nắm	-9.34432
▁đẳng	-9.34432
▁trật	-9.34447
▁quán	-9.34552
▁xá	-9.35003
as	-9.35013
▁2,	-9.35036
▁mệnh	-9.35103
▁sẵn	-9.35103
▁is	-9.35235
br	-9.35327
▁phu	-9.35778
it	-9.3584
▁hoang	-9.35887
▁lồng	-9.35943
▁tạm	-9.35959
▁kì	-9.36303
!	-9.3656
son	-9.3657
ul	-9.36651
ru	-9.36692
ron	-9.36998
▁vẽ	-9.37148
▁liền	-9.3715
▁lăng	-9.37168
▁nét	-9.37179
10	-9.37333
▁đau	-9.37416
▁tỏ	-9.37602
▁hư	-9.3761
▁phán	-9.37717
▁fc	-9.37796
▁thẩm	-9.37834
▁đốm	-9.37834
▁nguyện	-9.37835
▁phiếu	-9.37837
▁cook	-9.37849
▁malaysia	-9.37889
▁hỏa	-9.37937
▁se	-9.37978
▁lộc	-9.38072
▁sợ	-9.38411
▁thác	-9.38454
▁đạn	-9.38528
▁chuột	-9.3853
ol	-9.38881
▁trú	-9.38956
▁khỏe	-9.39227
▁nhiễm	-9.39227
▁thua	-9.39456
▁ung	-9.39497
po	-9.39553
hi	-9.39609
▁mai	-9.39731
▁lạ	-9.3975
▁for	-9.39759
si	-9.39928
▁liệt	-9.39938
▁th	-9.39992
▁hô	-9.40569
▁đoán	-9.40643
▁sọc	-9.4065
at	-9.40658
▁chín	-9.40676
ấy	-9.41052
▁tháp	-9.41355
▁xưa	-9.41355
▁ngờ	-9.41358
▁thai	-9.41414
▁canh	-9.41506
▁2015.	-9.41813
sinh	-9.42009
▁nhảy	-9.42077
▁arsenic	-9.42077
▁đuổi	-9.42127
▁trích	-9.42268
▁mini	-9.42278
▁tù	-9.42487
▁dậy	-9.42799
▁nghỉ	-9.42799
▁40	-9.42992
/1	-9.4301
▁tóc	-9.43576
▁lỗi	-9.43667
▁titan	-9.44033
▁man	-9.44123
▁canada	-9.44267
▁indonesia	-9.4428
▁che	-9.44291
▁2007	-9.44305
▁khoản	-9.44332
▁lui	-9.44637
▁ch	-9.44644
ish	-9.44724
▁thả	-9.44907
19	-9.4493
▁chở	-9.4501
▁thôn	-9.45038
▁hiểm	-9.4508
▁hè	-9.45119
▁st	-9.4516
ph	-9.45287
▁tan	-9.45366
▁john	-9.45413
be	-9.45504
▁ko	-9.45651
▁diego	-9.45752
▁bút	-9.45791
▁ja	-9.45961
▁dõi	-9.46503
▁ngừng	-9.46505
▁sóc	-9.46519
▁họp	-9.46894
▁vỡ	-9.47269
▁miêu	-9.47283
▁đón	-9.47311
▁2005	-9.4734
▁bác	-9.47428
▁ngự	-9.4778
ton	-9.47923
tsu	-9.47988
▁california	-9.48024
▁united	-9.48054
▁super	-9.48551
▁hài	-9.48567
▁vằn	-9.48794
▁syria	-9.48797
▁hấp	-9.48811
▁vườn	-9.49044
▁ả	-9.49083
▁thỏ	-9.49101
▁khấu	-9.49569
▁góc	-9.49583
▁game	-9.49759
▁chỉnh	-9.49776
▁nghĩ	-9.50232
▁lối	-9.5035
▁chồng	-9.50432
▁10,	-9.50493
▁/	-9.50598
▁dâng	-9.50701
▁mong	-9.50889
iễn	-9.50927
▁chối	-9.51137
▁rắn	-9.51137
▁chắc	-9.51142
is	-9.51143
▁ngầm	-9.5115
▁vỏ	-9.51151
▁city	-9.51222
▁2.	-9.51877
▁biện	-9.51932
nd	-9.51978
▁2013.	-9.52232
ật	-9.52241
▁re	-9.52282
▁he	-9.52289
hito	-9.5254
▁lg	-9.52653
▁cứng	-9.52679
▁okinawa	-9.52731
▁rập	-9.52847
▁times	-9.52913
▁2004	-9.53001
su	-9.53004
▁kho	-9.53014
ine	-9.53237
▁đồn	-9.53244
-1	-9.53342
▁bom	-9.53376
▁phức	-9.53537
▁dỡ	-9.5355
ir	-9.53642
▁ngô	-9.53699
▁chấ	-9.539
off	-9.54028
ie	-9.54083
▁gián	-9.54278
11	-9.54333
so	-9.54344
▁tháo	-9.54352
va	-9.54738
▁ef	-9.54943
▁quê	-9.55006
▁trăm	-9.55174
▁mổ	-9.55189
▁viễn	-9.55207
▁mạch	-9.55292
▁nhu	-9.55319
12	-9.55719
đ	-9.55944
▁mưu	-9.55997
▁tào	-9.56032
▁huyền	-9.56074
▁bè	-9.56316
▁+	-9.56492
iêm	-9.56806
▁kh	-9.56955
▁bát	-9.57233
▁hòn	-9.57631
▁phỏng	-9.5767
▁soạn	-9.57672
▁uss	-9.57795
▁fa	-9.57885
30	-9.57988
▁đứ	-9.57994
▁2014.	-9.58002
").	-9.58016
▁chứ	-9.5803
▁top	-9.58226
▁đậu	-9.58526
▁bái	-9.58813
▁dây	-9.58855
▁khô	-9.58864
▁dị	-9.59255
▁săn	-9.59297
▁tận	-9.59372
▁tcn	-9.59374
bi	-9.5943
pe	-9.59945
▁tv	-9.60034
▁mc	-9.60134
▁gỗ	-9.60259
▁bạo	-9.6031
▁dàng	-9.60437
▁dáng	-9.60668
▁1945	-9.60709
ad	-9.60938
▁hoá	-9.60938
▁kém	-9.61104
▁solomon	-9.61107
▁mét	-9.61128
▁chiêu	-9.6114
▁ngọt	-9.6122
▁phe	-9.61632
ã	-9.61801
▁ro	-9.61865
▁túc	-9.62054
▁3,	-9.62108
▁te	-9.62309
▁2000	-9.62465
▁bánh	-9.62624
▁cốt	-9.62752
▁chị	-9.62836
▁kèm	-9.62878
▁uống	-9.62892
▁dọa	-9.62898
▁mắc	-9.62907
không	-9.62949
▁xám	-9.631
▁vé	-9.63198
ran	-9.63259
▁qu	-9.63329
ge	-9.63418
▁play	-9.63608
▁dày	-9.63759
▁lạnh	-9.63772
▁music	-9.63818
▁2020	-9.64374
▁quái	-9.64561
"),	-9.64569
▁tung	-9.64608
▁huệ	-9.64661
▁xưởng	-9.64661
▁lưng	-9.64721
▁khuyế	-9.64739
▁can	-9.64845
ce	-9.64961
▁bù	-9.65516
▁quyển	-9.6557
▁nhấn	-9.65572
▁cỡ	-9.65585
▁khuôn	-9.65607
▁khủng	-9.65611
q	-9.65615
▁răng	-9.65641
▁ng	-9.65652
▁trịnh	-9.65686
▁đò	-9.65983
▁on	-9.66223
15	-9.66333
▁9,	-9.66361
▁lô	-9.66385
idae	-9.66456
▁chặt	-9.66486
▁dã	-9.66609
▁one	-9.66657
▁nóng	-9.66664
▁sẻ	-9.66736
▁bi	-9.66788
▁bề	-9.67127
▁si	-9.67403
▁heydrich	-9.67412
▁rãi	-9.67474
▁4,	-9.67658
▁đám	-9.67976
40	-9.68012
▁tp	-9.68112
▁1946	-9.68127
▁đậm	-9.68347
▁usagi	-9.6835
▁sót	-9.68367
▁nhị	-9.68368
▁bụng	-9.68371
▁nhạt	-9.68373
▁trắc	-9.68375
▁canon	-9.68376
▁thạch	-9.68401
▁lái	-9.68833
▁phụng	-9.69318
▁chinh	-9.69381
iềm	-9.694
80	-9.69623
ve	-9.6967
▁khổ	-9.70001
ấp	-9.70206
▁premier	-9.70241
▁nghề	-9.70243
▁highland	-9.70244
▁nhắc	-9.70247
▁duệ	-9.70256
▁60	-9.70403
hiếp	-9.7114
▁ích	-9.71204
▁android	-9.71206
▁seoul	-9.71206
▁cân	-9.71219
▁ném	-9.71236
▁tàn	-9.71261
jo	-9.71265
▁đo	-9.71271
子	-9.71336
sha	-9.71364
▁1.	-9.71427
ata	-9.71511
ền	-9.71622
▁200	-9.71628
▁bar	-9.71994
ian	-9.72075
▁dãy	-9.7228
▁solon	-9.72309
▁tàng	-9.72341
▁đan	-9.72353
▁cà	-9.72363
▁khổng	-9.72424
trong	-9.72534
ường	-9.72544
▁cu	-9.72596
▁chọi	-9.73156
▁đoạt	-9.73156
▁rạp	-9.73156
▁uefa	-9.73157
▁móng	-9.73307
▁bạ	-9.73663
tr	-9.7385
▁cát	-9.73987
▁điệu	-9.74151
▁1951	-9.74151
▁series	-9.74178
▁quen	-9.74208
▁kinnari	-9.74226
▁đàm	-9.74496
ent	-9.7454
▁mỏ	-9.74812
▁mu	-9.74975
ê	-9.75027
▁ái	-9.75056
▁samsung	-9.75147
▁trữ	-9.75147
▁ki	-9.75406
▁1,	-9.75937
’	-9.76156
▁caribe	-9.76156
▁chắn	-9.76156
▁snapdragon	-9.76156
▁aclu	-9.76156
▁cãi	-9.76156
▁tĩnh	-9.76172
cha	-9.76187
▁town	-9.76319
▁tata	-9.76336
ci	-9.76488
van	-9.76665
▁hứng	-9.77176
▁vết	-9.77176
▁ngồi	-9.77179
▁hầm	-9.77217
▁chibi	-9.77239
▁vong	-9.7727
▁cất	-9.77389
lan	-9.77545
▁tảng	-9.77829
▁washington	-9.78207
▁sùng	-9.78207
▁chưởng	-9.78208
▁1990	-9.78219
▁dầu	-9.7822
▁trinh	-9.78225
▁khanh	-9.78268
▁90	-9.78384
▁ân	-9.78434
▁khái	-9.78558
ts	-9.78614
▁kamen	-9.78732
▁than	-9.79094
▁trốn	-9.79182
tt	-9.79248
▁south	-9.7926
▁mũi	-9.79287
▁shin	-9.79371
▁shi	-9.79403
▁vui	-9.79405
▁khẳng	-9.79435
▁pi	-9.79473
▁thảm	-9.79518
▁hộp	-9.7969
▁you	-9.8002
▁lồ	-9.80071
▁ngợi	-9.80301
▁scott	-9.80301
▁1950	-9.80331
▁nh	-9.80394
▁2012.	-9.80456
▁thải	-9.80482
che	-9.81111
▁non	-9.81126
▁hoan	-9.81137
60	-9.81232
▁huyết	-9.81365
▁hổ	-9.81373
▁thịnh	-9.81554
▁1943	-9.81556
▁lũng	-9.81579
dd	-9.8189
▁per	-9.8201
ver	-9.8204
▁lee	-9.82253
lin	-9.82282
▁trội	-9.82448
▁2006	-9.82559
ana	-9.82571
lu	-9.82602
au	-9.827
ist	-9.82706
▁đồi	-9.82985
▁cự	-9.83242
▁guam	-9.83531
▁32	-9.83601
▁mồng	-9.83607
-2	-9.83948
▁bền	-9.84003
yo	-9.84164
▁am	-9.84301
▁giam	-9.84436
▁ốc	-9.84626
▁leyte	-9.84626
▁rangers	-9.84627
▁ưa	-9.84627
galaxy	-9.84627
▁triết	-9.84631
tức	-9.84921
45	-9.84968
▁lam	-9.84975
▁leo	-9.84978
▁2003	-9.85013
tu	-9.85321
âu	-9.85374
18	-9.85736
▁hứa	-9.85738
▁thiểu	-9.85743
▁mồi	-9.85787
▁bu	-9.85809
▁mê	-9.85809
land	-9.85845
▁vở	-9.85871
▁hưng	-9.86133
▁as	-9.86149
▁buồn	-9.8631
á	-9.86666
▁mông	-9.86751
▁lãm	-9.86861
▁ức	-9.86861
▁thiệt	-9.86864
▁z	-9.86868
▁hiền	-9.86894
▁web	-9.86913
▁tật	-9.86961
▁wa	-9.86978
22	-9.87116
der	-9.87143
85	-9.87226
sh	-9.87268
0.000	-9.87616
▁ku	-9.8784
▁lườn	-9.87929
▁mươi	-9.87997
▁william	-9.87997
▁ngân	-9.88
▁sạch	-9.88004
▁bão	-9.88049
▁wanda	-9.88082
▁gió	-9.88145
▁dư	-9.88253
▁hang	-9.8829
▁1960	-9.88448
gu	-9.88881
▁củ	-9.89101
gen	-9.89109
▁trạm	-9.89147
▁ipad	-9.89149
ica	-9.89181
▁khung	-9.89452
▁tia	-9.89548
năm	-9.89548
▁1999	-9.89691
ard	-9.89771
▁mạn	-9.90189
▁ngủ	-9.90193
ở	-9.90205
▁chạm	-9.9031
▁lưỡi	-9.9031
▁nẵng	-9.9031
▁đốt	-9.9031
▁inari	-9.90321
▁black	-9.90528
2,	-9.90555
▁ven	-9.9061
ành	-9.90613
▁up	-9.90672
ham	-9.90724
▁show	-9.90747
▁6,	-9.90816
per	-9.90874
ber	-9.90922
age	-9.91259
▁kín	-9.91432
▁po	-9.91437
▁1997	-9.915
▁1980	-9.9151
▁thẻ	-9.91516
mu	-9.91628
▁paul	-9.9203
▁eo	-9.92259
▁ngư	-9.92378
▁lu	-9.92418
zu	-9.92578
oh	-9.92591
ô	-9.92595
▁phan	-9.9265
▁cháy	-9.92677
▁chụp	-9.92677
▁vững	-9.92677
▁thầy	-9.92678
▁nhường	-9.92684
▁8,	-9.92856
▁rock	-9.93049
ngựa	-9.93066
thủy	-9.93077
▁tổn	-9.93165
▁ben	-9.93182
sen	-9.93323
5%	-9.93433
▁5,	-9.9346
am	-9.9349
▁ji	-9.93506
▁sam	-9.93649
▁may	-9.93677
les	-9.93785
▁nghèo	-9.93882
▁cột	-9.93896
▁chèo	-9.93899
▁dê	-9.93944
▁kêu	-9.94053
▁lạt	-9.94168
17	-9.94273
ea	-9.9445
.000	-9.94525
ation	-9.94528
▁lũ	-9.94767
▁nữu	-9.94811
▁nô	-9.94848
ak	-9.94903
▁đai	-9.94931
▁giàu	-9.95134
nay	-9.95143
▁will	-9.95145
▁minamoto	-9.95147
▁heart	-9.95157
▁khen	-9.95213
▁lôi	-9.95257
▁cúng	-9.95286
):	-9.95389
▁ám	-9.95596
ạ	-9.95612
zo	-9.95624
▁buôn	-9.95912
▁tựa	-9.96157
ll	-9.96172
▁vĩ	-9.96332
▁hiển	-9.96336
▁xưng	-9.96336
藤原	-9.96336
▁james	-9.96336
▁1996	-9.96348
▁hit	-9.96439
▁tiêm	-9.96441
▁=	-9.96478
▁7,	-9.96534
▁80	-9.96734
▁hạnh	-9.96982
có	-9.97043
21	-9.97147
ion	-9.97156
▁mm	-9.97365
▁robert	-9.97588
▁miếu	-9.97595
▁trâu	-9.97606
▁hâm	-9.97655
▁khích	-9.97774
▁2010.	-9.98006
còn	-9.98036
16	-9.98068
▁love	-9.98245
danh	-9.98247
▁70	-9.9849
fl	-9.98829
▁men	-9.98836
▁mực	-9.98851
▁rượu	-9.98851
▁rối	-9.98851
▁thép	-9.98877
▁gỡ	-9.98883
▁david	-9.98899
▁miệng	-9.98901
▁nở	-9.98901
);	-9.98959
▁ngọ	-9.99129
▁cửu	-9.99279
ngày	-9.99318
▁mv	-9.99327
▁kia	-9.99458
▁cụm	-9.99543
70	-9.99704
cho	-9.99735
▁chút	-9.99772
í	-9.99857
▁tre	-9.99898
▁ru	-10.0008
▁gợi	-10.0013
▁zealand	-10.0013
▁ẩm	-10.0013
▁club	-10.0013
▁mưa	-10.0013
▁chuồng	-10.0014
▁lân	-10.0015
▁tươi	-10.0015
▁đoan	-10.0016
▁xoay	-10.0016
ensis	-10.0018
▁we	-10.002
▁tiễn	-10.0025
▁chậm	-10.0027
▁cài	-10.003
▁east	-10.0037
▁3.	-10.0051
▁at	-10.0077
ty	-10.0087
mon	-10.0107
▁mọc	-10.0143
▁nhuận	-10.0143
▁đạp	-10.0143
▁mảnh	-10.0144
ảng	-10.0151
2)	-10.0161
▁hung	-10.0164
▁vạn	-10.0191
▁ngàn	-10.0198
86	-10.0207
▁dao	-10.0246
▁kiền	-10.0257
sau	-10.0266
▁championship	-10.0275
▁ireland	-10.0275
▁trộn	-10.0275
▁đựng	-10.0275
▁krông	-10.0275
fa	-10.0292
▁bột	-10.0292
▁trúng	-10.0321
▁trà	-10.036
)"	-10.0377
he	-10.0399
▁celtic	-10.0408
▁company	-10.0408
▁quỹ	-10.0408
▁sữa	-10.0408
▁ruột	-10.0408
▁khẩn	-10.0409
▁sáp	-10.0409
▁kiều	-10.0414
▁38	-10.0415
▁mùi	-10.0416
ina	-10.0417
▁my	-10.0426
▁ti	-10.0427
▁mw	-10.043
▁thục	-10.0436
▁ép	-10.0453
chirita	-10.0457
▁chợ	-10.046
ps	-10.0461
▁sp	-10.0461
chữ	-10.0462
ính	-10.0477
24	-10.0501
à	-10.0514
▁2008.	-10.0538
▁tú	-10.0539
▁lượn	-10.0539
▁alexios	-10.0543
▁tấm	-10.0543
▁ulithi	-10.0543
▁quế	-10.0544
▁lãng	-10.0544
▁11,	-10.0551
▁khuẩn	-10.0551
▁ngực	-10.0563
▁ao	-10.0564
▁el	-10.0578
+	-10.0585
uân	-10.059
—	-10.0597
league	-10.0599
tôi	-10.06
ley	-10.0617
▁1995	-10.0625
▁1998	-10.0652
▁island	-10.0663
du	-10.0674
14	-10.0674
▁va	-10.0674
▁lứa	-10.068
▁xấu	-10.068
▁first	-10.0684
▁điền	-10.0697
ắc	-10.0699
▁chấn	-10.0709
?	-10.0719
▁cổng	-10.0724
gh	-10.0729
25	-10.0744
▁khám	-10.0748
1)	-10.0749
den	-10.0749
ers	-10.0758
▁ri	-10.0771
▁iii	-10.0771
▁star	-10.0782
▁cán	-10.079
▁51	-10.079
sp	-10.0794
▁lò	-10.0797
▁youtube	-10.0819
▁gnome	-10.0819
▁hề	-10.0819
▁dừng	-10.0822
▁điệp	-10.083
▁bỉ	-10.0836
▁bách	-10.0844
▁đôn	-10.0862
nam	-10.0898
kh	-10.0905
tri	-10.092
▁live	-10.093
ii	-10.0935
ơ	-10.0937
87	-10.0951
▁nơ	-10.0953
▁khan	-10.0957
▁hắn	-10.096
▁vuông	-10.0961
▁lành	-10.0963
▁sạn	-10.0965
▁ngón	-10.0969
mar	-10.0986
▁kỉ	-10.0987
▁bông	-10.0993
▁2009.	-10.101
yama	-10.1015
ụ	-10.1028
▁tệ	-10.1043
▁tốn	-10.1059
êu	-10.1071
tion	-10.108
ok	-10.1081
▁har	-10.1082
fi	-10.1082
hợ	-10.1091
▁lặp	-10.1103
▁sultan	-10.1103
▁fifa	-10.1103
▁timor	-10.1106
▁hoảng	-10.1108
vo	-10.1145
ō	-10.1165
ăng	-10.1167
▁hào	-10.1179
▁bến	-10.118
ae	-10.1184
▁ranh	-10.1194
hu	-10.1205
▁im	-10.1214
▁lùn	-10.1241
▁sho	-10.1245
▁viếng	-10.1248
▁isshu	-10.1248
▁nevada	-10.1248
▁media	-10.1249
▁1955	-10.1249
▁1986	-10.125
▁lisa	-10.1252
▁cáp	-10.1257
iko	-10.1266
35	-10.1267
▁neo	-10.1269
faw	-10.1272
ọa	-10.1299
▁inc	-10.1307
ara	-10.1314
65	-10.1318
io	-10.1352
ff	-10.1353
▁solo	-10.1367
ence	-10.138
▁1992	-10.1391
▁car	-10.1394
▁cừu	-10.1395
▁lắng	-10.1395
▁nấm	-10.1395
▁francisco	-10.1395
▁chuỗi	-10.1396
ăk	-10.1396
▁buýt	-10.1399
▁chìm	-10.1405
▁dịp	-10.1406
▁ar	-10.1411
▁lẻ	-10.1411
▁át	-10.1424
ger	-10.1439
▁nộ	-10.1458
cu	-10.1461
men	-10.1475
pop	-10.1486
và	-10.149
▁12,	-10.1491
ura	-10.15
ray	-10.1502
est	-10.153
▁los	-10.1532
▁ep	-10.1532
▁dũng	-10.1544
▁dời	-10.1544
▁angeles	-10.1544
▁boston	-10.1544
▁xoáy	-10.1545
▁1994	-10.1546
▁1987	-10.1546
▁huân	-10.1547
▁cương	-10.1548
▁ngàm	-10.1548
▁thuê	-10.1553
we	-10.156
▁(18	-10.156
▁thách	-10.156
▁single	-10.1561
ban	-10.1568
▁en	-10.1578
▁đeo	-10.1582
66	-10.1605
ell	-10.161
je	-10.1612
trung	-10.1624
▁ge	-10.1639
cve	-10.165
▁mar	-10.1656
29	-10.1663
kan	-10.1671
ợng	-10.1672
▁xó	-10.1684
ler	-10.1693
▁cưỡi	-10.1696
▁dứt	-10.1696
▁nấu	-10.1696
▁gói	-10.1696
▁oxy	-10.1696
▁shogun	-10.1696
▁chẽ	-10.1696
▁clarke	-10.1696
▁phường	-10.1696
▁lừa	-10.1697
▁hyaku	-10.1697
ếm	-10.1697
▁đâm	-10.1707
▁hu	-10.1717
▁ph	-10.1718
▁2006,	-10.1721
▁kiên	-10.1748
▁ju	-10.1768
200	-10.1785
▁counti	-10.1828
▁pro	-10.183
▁pu	-10.1844
▁crystal	-10.1849
▁muối	-10.1849
▁wolverine	-10.1849
▁ngập	-10.185
▁flc	-10.1851
▁sánh	-10.1853
▁it	-10.1856
▁ghép	-10.1857
▁hoài	-10.1858
▁tiềm	-10.1861
ogur	-10.1865
ệp	-10.188
▁vang	-10.1886
▁cản	-10.1931
ishi	-10.1964
83	-10.1979
▁khứ	-10.2001
▁ngại	-10.2006
▁vancouver	-10.2006
▁sports	-10.2006
▁súc	-10.2006
▁dược	-10.2006
▁thỉnh	-10.2007
▁hybe	-10.2009
▁kem	-10.2025
▁taira	-10.2025
▁2021	-10.2026
▁1993	-10.2029
dong	-10.2033
▁nho	-10.2033
▁eos	-10.2034
▁khuyết	-10.2035
san	-10.2038
97	-10.2047
▁phả	-10.2049
▁za	-10.2049
▁2017.	-10.2084
▁2011.	-10.2098
▁air	-10.2103
ù	-10.2108
chu	-10.2141
▁nhãn	-10.2142
▁chờ	-10.2165
▁cưới	-10.2166
▁jr	-10.2166
▁mèo	-10.2166
▁gương	-10.217
que	-10.217
▁mơ	-10.2172
-10	-10.2181
▁thiền	-10.219
▁khoáng	-10.2192
ei	-10.2194
for	-10.2198
50	-10.22
▁cong	-10.2201
▁big	-10.2203
▁mộc	-10.2204
sta	-10.2236
ny	-10.224
my	-10.2241
▁vu	-10.2242
tes	-10.2243
▁mãi	-10.2249
▁cú	-10.2266
usa	-10.227
74	-10.2277
ud	-10.228
ả	-10.2297
billboard	-10.2326
▁hẹp	-10.2326
▁mốc	-10.2326
▁ngưỡng	-10.2326
▁jisoo	-10.2326
▁lúa	-10.2327
▁nhầm	-10.2327
ập	-10.233
▁thính	-10.233
▁tím	-10.2332
▁bơi	-10.2334
▁nút	-10.2336
▁koi	-10.2347
8)	-10.236
▁jo	-10.2396
;/	-10.2403
23	-10.2407
những	-10.2408
các	-10.2411
kamen	-10.2418
69	-10.242
▁táng	-10.2431
64	-10.2447
▁ne	-10.2458
▁ấp	-10.2466
aria	-10.2472
ah	-10.2483
▁google	-10.249
▁tuyết	-10.249
▁úy	-10.249
▁xích	-10.2491
▁móc	-10.2494
▁gọn	-10.2495
▁sàng	-10.2499
min	-10.2514
▁đinh	-10.2523
ey	-10.2526
33	-10.2553
▁ác	-10.2559
tin	-10.2566
";	-10.2567
▁lou	-10.2574
▁(1	-10.2575
▁sc	-10.2612
28	-10.2631
tro	-10.2638
tra	-10.264
▁36	-10.2647
▁sê	-10.2654
henckelia	-10.2656
▁hảo	-10.2656
▁thuẫn	-10.2656
▁lỏng	-10.2656
▁hoãn	-10.2657
▁heian	-10.2658
▁sài	-10.2659
▁múa	-10.2661
▁2007.	-10.2668
▁pe	-10.2669
▁linux	-10.2671
▁mấy	-10.2671
▁maria	-10.2676
98	-10.2677
ary	-10.2678
▁dj	-10.268
▁metal	-10.2684
new	-10.2684
ris	-10.2688
▁1959	-10.2691
kai	-10.2699
ấn	-10.2706
▁"(	-10.2714
sia	-10.2737
mp	-10.2741
được	-10.2744
ee	-10.2784
▁sha	-10.2787
dai	-10.2794
▁đáo	-10.2799
ene	-10.2809
▁ani	-10.2809
▁ngộ	-10.2817
▁with	-10.2819
res	-10.2822
▁2014–15	-10.2826
▁brooke	-10.2826
▁2012–13	-10.2826
▁windows	-10.2827
▁chiêm	-10.2827
▁mừng	-10.2829
▁1930	-10.283
▁ngạch	-10.2833
▁vcn	-10.2837
▁mát	-10.2837
▁điêu	-10.2841
lis	-10.2845
▁ve	-10.2849
▁thang	-10.2855
08	-10.2864
▁yoshi	-10.2865
▁1969	-10.2868
ino	-10.2874
nes	-10.2883
ẩn	-10.2886
dáng	-10.2919
sự	-10.2923
▁tạ	-10.2929
und	-10.2949
ment	-10.2967
ten	-10.2968
▁was	-10.2981
▁miện	-10.2992
▁athens	-10.2998
▁duyệt	-10.2998
▁hỏng	-10.2998
▁sỹ	-10.2998
▁đợi	-10.2998
▁phấn	-10.2999
ế	-10.2999
▁1954	-10.2999
▁1979	-10.3
▁nạp	-10.3
▁rào	-10.3002
▁sút	-10.3002
hara	-10.3004
▁thuế	-10.3004
▁radar	-10.3014
hay	-10.3018
▁sét	-10.3026
ư	-10.3033
32	-10.3036
▁red	-10.3037
▁port	-10.3044
▁lọc	-10.3046
2.	-10.3053
-14	-10.3058
/10	-10.3069
90	-10.3073
em	-10.3077
-18	-10.3086
tha	-10.3094
▁trừng	-10.3104
1.	-10.3136
ớ	-10.3143
▁kit	-10.3159
▁campuchia	-10.3174
▁dận	-10.3174
▁dải	-10.3174
▁disney	-10.3174
▁phế	-10.3174
▁london	-10.3174
▁chục	-10.3174
▁sụp	-10.3176
▁kiệt	-10.3177
▁queen	-10.3178
▁sổ	-10.3179
▁rã	-10.3185
aki	-10.3189
▁râu	-10.3192
▁căng	-10.322
▁nhã	-10.3224
▁col	-10.3232
44	-10.3246
rt	-10.3248
27	-10.3257
ep	-10.3268
bra	-10.3282
▁khoá	-10.3283
ị	-10.3295
13	-10.33
ám	-10.3303
-16	-10.3312
công	-10.3314
▁ver	-10.3321
▁sàn	-10.3338
eo	-10.3351
▁hotaru	-10.3352
▁hằng	-10.3352
▁đuối	-10.3352
▁euler	-10.3352
▁team	-10.3353
▁jack	-10.3354
▁1974	-10.3354
▁vòm	-10.3357
▁35	-10.3359
▁ngục	-10.3363
▁xong	-10.3363
4,	-10.3367
▁charles	-10.3367
ze	-10.3372
des	-10.3376
ex	-10.3407
6)	-10.341
▁jun	-10.3411
ice	-10.3417
tam	-10.3422
yū	-10.3443
▁gu	-10.3457
▁đòn	-10.3482
phi	-10.3486
yō	-10.3515
09	-10.3519
▁thự	-10.3523
don	-10.3532
▁thomas	-10.3534
▁ấm	-10.3534
▁jurong	-10.3534
▁1976	-10.3534
▁quỷ	-10.3534
▁power	-10.3535
▁tề	-10.3535
▁two	-10.3537
▁miếng	-10.3538
▁1957	-10.3539
▁viêm	-10.3542
▁ngụy	-10.3542
▁nhịp	-10.3546
▁nhậm	-10.3549
▁hồn	-10.3552
55	-10.3553
42	-10.3579
77	-10.3582
▁ad	-10.3611
▁2019,	-10.3615
è	-10.3628
▁ō	-10.3631
im	-10.3634
▁hã	-10.3638
tên	-10.3643
▁yu	-10.3645
▁nai	-10.3654
05	-10.3654
phim	-10.3656
tan	-10.3677
ada	-10.3699
▁2013–14	-10.3719
▁gốm	-10.3719
shinnō	-10.3719
▁1971	-10.3721
▁gòn	-10.3723
▁nêu	-10.3725
▁thiêu	-10.3728
▁khoán	-10.3731
82	-10.3732
▁gấp	-10.3735
]]	-10.3738
rin	-10.3739
iki	-10.3755
▁del	-10.3773
▁45	-10.378
▁van	-10.3781
jin	-10.3782
anh	-10.3798
ure	-10.3803
ảy	-10.3807
95	-10.3814
▁pen	-10.3826
▁je	-10.3828
mer	-10.3828
▁gai	-10.3836
▁1958	-10.384
ker	-10.3852
▁""	-10.3867
ượn	-10.388
như	-10.3881
84	-10.3897
▁ngã	-10.3898
▁bó	-10.3906
▁chuộng	-10.3908
▁hẳn	-10.3908
▁hẹn	-10.3908
▁ngòi	-10.3908
▁strait	-10.3908
▁ấu	-10.3908
▁network	-10.3908
▁welsh	-10.3908
▁burton	-10.3908
▁shōya	-10.3909
▁1973	-10.3909
▁đỗ	-10.391
▁motors	-10.3913
▁chàng	-10.3913
▁chiên	-10.3915
▁bì	-10.3917
▁thôi	-10.3919
▁ngon	-10.3922
01	-10.3923
▁treo	-10.3923
▁ngột	-10.3927
▁ảo	-10.3929
94	-10.3938
▁già	-10.3954
▁mỏng	-10.3955
99	-10.397
▁01	-10.3986
6,	-10.3989
▁mây	-10.4001
đại	-10.4019
chủ	-10.402
%	-10.4022
từ	-10.4025
and	-10.4026
62	-10.4028
gan	-10.4028
ys	-10.4029
07	-10.403
▁8.	-10.4031
▁xen	-10.4032
▁taka	-10.404
▁2002	-10.4041
▁ya	-10.4057
▁ce	-10.4075
▁hot	-10.4077
▁trù	-10.4078
ns	-10.408
96	-10.4081
▁min	-10.4092
▁george	-10.41
▁giận	-10.41
▁guinea	-10.41
▁thận	-10.41
▁dặm	-10.41
▁khuyên	-10.41
▁quét	-10.4101
▁1953	-10.4102
▁1972	-10.4102
▁1982	-10.4102
▁runge	-10.4103
▁or	-10.4103
kutta	-10.4103
75	-10.4103
▁lầm	-10.4114
▁international	-10.4114
▁300	-10.4123
/4	-10.4124
tai	-10.4132
▁lào	-10.4143
ục	-10.4147
ria	-10.415
yu	-10.4162
▁mac	-10.4164
tic	-10.4165
uk	-10.4178
▁nan	-10.419
▁tụng	-10.4193
▁xứng	-10.4199
▁king	-10.4237
▁masa	-10.4245
tis	-10.4253
▁34	-10.4257
▁kiề	-10.4269
▁mù	-10.4279
▁nề	-10.428
▁ngạc	-10.4289
▁champions	-10.4296
▁dắt	-10.4296
▁jordan	-10.4296
▁malacca	-10.4296
▁ngẫu	-10.4296
▁sharrock	-10.4296
▁nobel	-10.4296
▁kyoto	-10.4297
▁[[	-10.4297
▁records	-10.4299
▁trầm	-10.4303
▁1920	-10.4304
red	-10.4309
wan	-10.4326
▁kon	-10.4337
ium	-10.4343
▁ap	-10.4363
lon	-10.4364
car	-10.4372
ju	-10.4378
▁ia	-10.4411
48	-10.4412
har	-10.4413
định	-10.4415
op	-10.4422
won	-10.4438
▁thô	-10.4439
kin	-10.4442
▁dạ	-10.445
▁ghé	-10.4473
67	-10.4475
▁bê	-10.4496
▁hách	-10.4496
▁lưỡng	-10.4496
▁nhắm	-10.4496
▁valkenburgh	-10.4496
▁đằng	-10.4496
|	-10.4496
▁kịp	-10.4496
▁ruồi	-10.4497
▁playoff	-10.4498
▁diệu	-10.4498
▁đới	-10.4498
▁giấu	-10.4499
▁protein	-10.4506
pp	-10.451
▁poppy	-10.4512
▁bích	-10.4512
▁nu	-10.4515
ai	-10.4522
dia	-10.4527
ita	-10.4534
if	-10.4543
▁west	-10.4558
rie	-10.4595
▁thắ	-10.4623
▁1960.	-10.4623
▁xx	-10.4678
▁1989	-10.4679
ven	-10.4686
▁chư	-10.4689
fe	-10.4692
▁trán	-10.4694
▁(2016)	-10.47
▁dốc	-10.47
▁giỏi	-10.47
▁münchen	-10.47
▁phẫu	-10.47
▁marley	-10.4701
▁xỉ	-10.4701
▁1984	-10.4702
▁dance	-10.4705
▁awards	-10.4709
▁vocaloid	-10.471
uda	-10.471
▁wi	-10.4714
▁ces	-10.4714
▁khôi	-10.4729
▁sky	-10.4748
▁cóc	-10.4749
▁moto	-10.4751
▁mò	-10.4755
▁dna	-10.4759
▁news	-10.476
▁mao	-10.4766
].	-10.4772
ies	-10.478
wi	-10.479
ung	-10.4813
,5	-10.4824
hoặc	-10.4827
▁(11	-10.4835
▁pc	-10.4843
▁q	-10.4852
ì	-10.4854
34	-10.4856
3)	-10.4856
72	-10.4857
36	-10.4861
▁2006.	-10.4864
ov	-10.4871
ling	-10.4873
▁cor	-10.4899
can	-10.4901
ắk	-10.4905
88	-10.4908
▁ashikaga	-10.4909
▁chốt	-10.4909
▁bụi	-10.4909
▁cướp	-10.491
▁bếp	-10.4911
▁paris	-10.4911
▁mỡ	-10.4913
▁nạt	-10.4915
▁thiệp	-10.4921
▁1936	-10.4922
▁tour	-10.4925
▁túi	-10.4927
▁tràn	-10.4929
▁moana	-10.4931
▁58	-10.4933
ek	-10.4949
hangul	-10.4953
▁bọ	-10.4953
▁ann	-10.4959
one	-10.4966
▁all	-10.4971
5)	-10.4985
là	-10.5007
▁voi	-10.5011
79	-10.5028
hìn	-10.5038
trước	-10.5043
tia	-10.5057
ỏ	-10.5082
▁ôn	-10.5085
mb	-10.5087
▁hú	-10.5096
ang	-10.51
com	-10.5104
000	-10.5117
our	-10.512
の	-10.5121
▁2015–16	-10.5121
▁nhựa	-10.5121
▁sườn	-10.5121
▁yeager	-10.5121
▁1947	-10.5121
▁gạo	-10.5121
▁naoko	-10.5121
▁1961	-10.5122
hee	-10.5122
▁internet	-10.5122
▁jean	-10.5123
▁peter	-10.5125
▁jima	-10.5127
▁precious	-10.5129
▁2001	-10.5131
▁prince	-10.5131
:00	-10.514
berg	-10.5142
▁rau	-10.5153
▁gan	-10.516
▁daigo	-10.5161
▁tỏa	-10.5163
▁sen	-10.5165
▁út	-10.5166
▁anna	-10.5175
▁150	-10.5179
▁art	-10.519
ami	-10.5191
sabi	-10.5201
zi	-10.5216
vay	-10.5227
91	-10.524
thường	-10.5262
▁2018.	-10.5269
ộ	-10.5269
▁sin	-10.5271
▁hoà	-10.5287
▁dai	-10.5292
▁il	-10.5312
bs	-10.5321
▁yo	-10.5331
7)	-10.5336
▁asgardia	-10.5339
▁hoằng	-10.5339
▁mexico	-10.5339
▁slovenia	-10.5339
▁wrexham	-10.5339
▁teaser	-10.5339
▁nhện	-10.5339
▁kiev	-10.5339
▁chibiusa	-10.534
▁karate	-10.534
▁phôi	-10.5341
▁hắc	-10.5342
▁1985	-10.5343
▁rẽ	-10.5343
nari	-10.5343
▁dính	-10.5347
del	-10.535
▁os	-10.5351
▁luna	-10.5352
by	-10.5354
ec	-10.536
1,	-10.5374
▁shocker	-10.5376
▁fe	-10.5377
▁500	-10.5382
only	-10.5385
▁santa	-10.5394
▁fu	-10.5404
▁khóc	-10.5415
3,	-10.5419
gia	-10.5451
▁1941	-10.5454
93	-10.546
▁10.	-10.546
▁ten	-10.5465
▁cốc	-10.547
-12	-10.5478
1%	-10.548
tháng	-10.5481
thiên	-10.5494
▁yoo	-10.5499
line	-10.5501
òng	-10.5504
▁ray	-10.5514
▁1991	-10.5522
▁101	-10.5537
”.	-10.5553
▁bướm	-10.5561
▁claude	-10.5561
▁isaac	-10.5561
▁kashag	-10.5561
▁kuwait	-10.5561
▁mẫn	-10.5561
▁mắm	-10.5561
▁chừng	-10.5562
▁kinnara	-10.5562
▁elae	-10.5562
▁1956	-10.5563
▁1940	-10.5566
▁vóc	-10.5566
▁chuông	-10.5567
▁não	-10.5567
▁chicago	-10.5568
▁manus	-10.5568
nhà	-10.5571
▁she	-10.5571
▁cuba	-10.5576
▁usm	-10.5577
ye	-10.5578
ess	-10.5583
gue	-10.5601
rr	-10.5614
▁120	-10.5627
▁tùng	-10.5637
▁44	-10.5645
ần	-10.5669
iwo	-10.5684
▁boy	-10.5684
▁phổi	-10.5686
kyō	-10.5706
cc	-10.5707
ill	-10.5709
▁1975	-10.5713
▁khía	-10.5721
▁ci	-10.5723
▁jin	-10.5728
ato	-10.573
nie	-10.5737
▁33	-10.5738
lle	-10.5742
▁blu	-10.5754
▁ngụ	-10.5768
pho	-10.578
▁stadium	-10.5788
▁hollywood	-10.5788
▁balkan	-10.5789
▁shōko	-10.5789
▁zaza	-10.579
uri	-10.5791
▁vời	-10.5793
▁andorra	-10.5795
▁chart	-10.5796
▁rồng	-10.5797
▁dvd	-10.5797
▁dâu	-10.5799
▁afc	-10.58
▁richard	-10.5805
▁hạc	-10.581
tv	-10.5818
▁quyến	-10.5823
49	-10.5824
58	-10.5834
▁1970	-10.5846
43	-10.5876
ương	-10.5879
ig	-10.5879
fu	-10.5893
ning	-10.5904
▁mon	-10.5908
▁bush	-10.592
-9	-10.5921
▁lon	-10.5928
▁naka	-10.593
bài	-10.595
ren	-10.5957
rus	-10.5974
way	-10.5982
sse	-10.5988
▁sốc	-10.6003
ét	-10.6009
▁uốn	-10.6014
ệ	-10.602
▁2011–12	-10.6021
▁cardiff	-10.6021
▁cherokee	-10.6021
▁kamikaze	-10.6021
▁nhốt	-10.6021
▁north	-10.6021
▁hungary	-10.6022
▁tuệ	-10.6023
▁1948	-10.6023
▁nàng	-10.6023
▁chào	-10.6023
▁duyên	-10.6024
▁ram	-10.6024
▁rác	-10.6027
▁martin	-10.6027
▁lặng	-10.6028
▁ufo	-10.6034
▁hưu	-10.6038
hòm	-10.6051
▁chì	-10.6055
imina	-10.6065
oc	-10.6068
▁han	-10.6076
▁hill	-10.6079
▁hyun	-10.6087
▁khe	-10.6097
bar	-10.6097
▁2019	-10.6099
▁ếch	-10.6099
▁jong	-10.6111
▁pin	-10.6112
▁bồi	-10.6115
ā	-10.6118
tō	-10.6123
▁37	-10.6144
▁tó	-10.6148
▁tị	-10.6151
▁mào	-10.6179
▁tha	-10.6184
val	-10.6185
▁tro	-10.6191
sc	-10.6194
taka	-10.6199
ờ	-10.6205
ds	-10.6211
59	-10.6221
hoàng	-10.624
3.	-10.625
▁lặn	-10.6252
▁42	-10.6252
▁cạn	-10.6259
▁albania	-10.6259
▁brochero	-10.6259
▁bữa	-10.6259
▁dẹp	-10.6259
▁suối	-10.6259
▁guitar	-10.6259
▁henry	-10.626
▁euro	-10.6261
▁1962	-10.6262
▁1964	-10.6262
▁1932	-10.6262
▁liềm	-10.6269
▁tele	-10.627
2%	-10.6275
án	-10.6282
▁pre	-10.629
▁#	-10.6294
▁sợi	-10.63
up	-10.6318
6%	-10.6325
▁act	-10.6333
▁day	-10.6337
▁un	-10.6337
▁chua	-10.6359
37	-10.6361
▁sri	-10.6363
sai	-10.6365
▁09	-10.6368
rd	-10.6374
92	-10.6383
ox	-10.6388
▁las	-10.6391
cia	-10.6392
fer	-10.6399
ting	-10.6402
-4	-10.6414
89	-10.6416
nhân	-10.6422
▁peru	-10.6428
▁bọn	-10.6437
tân	-10.6443
▁sy	-10.6478
▁heo	-10.6481
▁mòn	-10.6484
▁par	-10.6488
▁thơm	-10.6498
▁kygo	-10.6503
▁pocket	-10.6503
iếp	-10.6503
▁slav	-10.6503
▁1983	-10.6506
▁liha	-10.6507
▁kỵ	-10.6507
▁lấn	-10.6508
▁đèn	-10.651
▁green	-10.6512
petro	-10.6514
▁blackpink	-10.6516
▁avengers	-10.6528
▁đáy	-10.653
▁data	-10.6548
▁quát	-10.6572
▁com	-10.6574
thi	-10.6574
▁mark	-10.6575
ner	-10.6578
yan	-10.6579
!"	-10.6584
ếch	-10.6593
ller	-10.6594
ign	-10.6602
ira	-10.6605
▁shu	-10.6612
▁6.	-10.6615
▁pra	-10.6618
53	-10.6623
▁tơ	-10.6634
rio	-10.664
ade	-10.6641
tal	-10.6644
ép	-10.6651
ú	-10.6665
quân	-10.6673
màu	-10.6674
ão	-10.6675
xe	-10.6704
▁michael	-10.6704
▁màng	-10.6708
9)	-10.6715
56	-10.6718
▁tom	-10.672
▁mờ	-10.6748
0)	-10.6751
▁eniwetok	-10.6753
▁israel	-10.6753
▁nặc	-10.6753
▁serenity	-10.6753
▁đắt	-10.6753
include	-10.6753
▁aceh	-10.6755
▁brasil	-10.6756
ros	-10.6757
▁khiếu	-10.6758
▁australia	-10.6758
▁iran	-10.6759
▁rụng	-10.676
▁rapper	-10.676
▁cẩn	-10.6761
ted	-10.6762
khi	-10.6765
▁tòng	-10.6769
▁giây	-10.6772
▁thám	-10.6772
▁pop	-10.6785
▁(8	-10.6792
▁girls	-10.6797
▁quên	-10.6805
ect	-10.6821
cá	-10.6841
ó	-10.6846
▁sớ	-10.6853
▁jung	-10.6861
bal	-10.6862
▁american	-10.6872
▁sh	-10.6876
ôn	-10.6882
▁9.	-10.6891
▁ue	-10.6891
ò	-10.6904
hai	-10.6914
let	-10.6931
thành	-10.6937
▁ab	-10.6947
ow	-10.6966
/9	-10.6967
▁inch	-10.6987
▁đói	-10.6992
▁archive	-10.7009
▁athletic	-10.7009
▁colombia	-10.7009
▁roosevelt	-10.7009
▁trưa	-10.7009
▁tấu	-10.7009
▁xiaomi	-10.7009
▁1981	-10.7009
▁htc	-10.7009
▁ngỗng	-10.701
▁ottoman	-10.701
donald	-10.701
▁road	-10.7011
▁giật	-10.7012
▁1966	-10.7013
▁nhạy	-10.7014
▁rosé	-10.7014
▁mariana	-10.7015
dr	-10.7015
▁newton	-10.7019
71	-10.7021
46	-10.7022
ez	-10.7027
▁group	-10.7034
▁karuta	-10.7034
39	-10.7045
▁béo	-10.706
lla	-10.7061
▁tahiti	-10.7087
ford	-10.7094
▁anti	-10.7094
iz	-10.7105
len	-10.7119
▁khoang	-10.7124
▁sanh	-10.7126
▁by	-10.7126
ide	-10.7128
▁0,	-10.7145
▁rạn	-10.7158
3%	-10.7159
học	-10.7168
esti	-10.7174
..."	-10.7177
une	-10.7181
▁mag	-10.7186
▁pan	-10.7194
▁(16	-10.7195
cầu	-10.7198
pm	-10.7205
?"	-10.7208
tương	-10.721
rs	-10.7213
ong	-10.7217
ance	-10.7228
bin	-10.7234
▁alen	-10.7235
ọ	-10.7247
lia	-10.7255
mann	-10.7257
大	-10.7272
▁cartoon	-10.7272
▁croatia	-10.7272
▁cắn	-10.7272
▁kẹp	-10.7272
▁lovren	-10.7272
▁marvel	-10.7272
▁axit	-10.7272
▁cõi	-10.7272
▁bớt	-10.7273
▁khiết	-10.7273
▁eren	-10.7275
▁đâu	-10.7279
▁2–1	-10.728
▁eas	-10.7281
▁gánh	-10.7281
▁bayern	-10.7282
▁kyokushin	-10.7282
▁chìa	-10.7288
▁house	-10.7292
▁us	-10.7313
▁mara	-10.7314
bộ	-10.7317
chỉ	-10.7319
ken	-10.7327
ori	-10.7329
▁ea	-10.734
▁hall	-10.7343
ella	-10.7349
▁dan	-10.7352
▁time	-10.7358
▁thà	-10.7359
▁sun	-10.7363
ui	-10.7369
her	-10.7396
ỗi	-10.7405
hoa	-10.7436
▁mari	-10.7453
bản	-10.7454
06	-10.7457
right	-10.7461
cùng	-10.7461
▁1949	-10.748
▁hố	-10.7494
▁vc	-10.75
kha	-10.75
▁make	-10.7526
▁ngắ	-10.7526
▁rạc	-10.7535
▁arsen	-10.7541
▁eternal	-10.7543
▁massachusetts	-10.7543
▁nguyệt	-10.7543
▁nắng	-10.7543
▁pedro	-10.7543
▁wakashū	-10.7543
▁vãn	-10.7543
▁bbc	-10.7543
▁quỳnh	-10.7543
▁armata	-10.7543
▁praha	-10.7544
▁newport	-10.7545
▁olympic	-10.7545
▁chày	-10.7546
▁đèo	-10.7547
▁kō	-10.7557
▁bọc	-10.7557
▁gra	-10.7559
▁produce	-10.7561
los	-10.7568
ern	-10.7571
▁apple	-10.7579
▁séc	-10.758
▁“"	-10.7583
▁nghịch	-10.7588
▁fan	-10.7589
ub	-10.759
▁(12	-10.7591
rich	-10.7596
shin	-10.7599
▁quách	-10.7603
▁lây	-10.7621
▁bội	-10.7627
▁say	-10.7632
▁rẻ	-10.7638
ổ	-10.7649
▁son	-10.7659
tta	-10.7661
ū	-10.7676
▁nhi	-10.7676
óng	-10.7694
ö	-10.7713
▁kent	-10.7713
▁(2	-10.7714
mba	-10.7717
-23	-10.7734
naem	-10.7749
▁(7	-10.7753
ội	-10.7758
▁().	-10.7765
▁64	-10.7776
mura	-10.7779
▁1988	-10.7783
▁et	-10.7795
nhất	-10.78
▁ed	-10.7801
bri	-10.7815
ü	-10.7819
ocarpus	-10.7821
casablanca	-10.7821
▁gậy	-10.7821
▁lowland	-10.7821
▁muộn	-10.7821
▁nứt	-10.7821
▁tokugawa	-10.7821
▁vuốt	-10.7821
▁vẹn	-10.7821
▁zoom	-10.7821
▁lùi	-10.7821
▁váy	-10.7821
▁piano	-10.7821
▁trượt	-10.7822
▁europa	-10.7822
▁1952	-10.7822
▁jones	-10.7822
▁lydia	-10.7822
▁1978	-10.7824
▁nái	-10.7825
▁lão	-10.7825
▁mnet	-10.7825
▁diên	-10.7825
▁thoảng	-10.7826
▁1968	-10.7827
▁rũ	-10.7828
▁2022	-10.7829
▁vảy	-10.7831
▁pipet	-10.7836
▁kate	-10.7838
▁uyên	-10.7849
▁pl	-10.7853
2013	-10.7853
▁°	-10.7866
▁thùy	-10.7878
▁bồn	-10.788
▁magic	-10.7883
bus	-10.7887
ỗ	-10.7889
▁cành	-10.7899
▁santo	-10.7907
54	-10.7916
▁haiti	-10.7926
sk	-10.7927
▁gene	-10.7956
pha	-10.7956
var	-10.7957
▁(9	-10.7963
èn	-10.7981
8%	-10.7982
▁bia	-10.7983
▁hoành	-10.7991
ase	-10.7992
▁ke	-10.7992
sis	-10.7995
time	-10.7995
rey	-10.8001
ậu	-10.8017
$	-10.8024
việt	-10.8027
▁holland	-10.8029
▁bass	-10.803
ví	-10.8032
rah	-10.8037
▁tà	-10.8042
▁ken	-10.8048
▁hal	-10.8056
▁400	-10.8058
ồn	-10.806
00	-10.8065
ring	-10.8089
▁dĩ	-10.8094
▁57	-10.8094
▁toà	-10.8095
天	-10.8106
王	-10.8106
▁cinnamon	-10.8106
▁divisió	-10.8106
▁muscat	-10.8106
▁neanderthal	-10.8106
▁serbia	-10.8106
▁sumatra	-10.8106
▁vẹt	-10.8106
▁website	-10.8106
▁yusof	-10.8106
▁rực	-10.8106
▁stick	-10.8106
▁chdc	-10.8106
▁microsoft	-10.8106
▁smith	-10.8106
▁nhưỡng	-10.8106
▁ngừa	-10.8107
▁eldia	-10.8107
▁philip	-10.8107
▁myanmar	-10.8107
-15	-10.8108
▁tiếc	-10.8109
▁1965	-10.811
▁liêu	-10.8111
▁hoại	-10.8114
▁nll	-10.8117
▁maui	-10.8118
▁gạch	-10.8122
jō	-10.8125
▁razer	-10.8125
▁ham	-10.8128
="	-10.8135
▁lanka	-10.8137
▁java	-10.8138
▁chan	-10.8139
hyun	-10.8139
-7	-10.8139
▁cút	-10.8141
03	-10.8143
▁yasu	-10.8146
▁nung	-10.8148
▁saga	-10.8153
▁cuống	-10.8156
xin	-10.8157
shō	-10.8161
▁kham	-10.8163
▁đứt	-10.8164
▁48	-10.8185
▁yg	-10.8186
▁full	-10.8189
nia	-10.8201
▁["	-10.8205
▁02	-10.8209
▁03	-10.821
▁ze	-10.8211
ọt	-10.8216
▁nagai	-10.8221
73	-10.8225
atsu	-10.8225
▁chúc	-10.8248
▁05	-10.825
thu	-10.8251
ới	-10.8252
use	-10.8257
ft	-10.8267
▁vú	-10.8271
▁khải	-10.8303
▁?	-10.831
▁cain	-10.8311
▁cò	-10.8319
▁nara	-10.8319
▁77	-10.8333
well	-10.8333
chan	-10.8334
tấn	-10.8348
▁oh	-10.8357
▁ván	-10.8361
▁ak	-10.8365
ini	-10.8376
▁43	-10.8382
,000	-10.8385
4)	-10.8397
仁	-10.84
氏	-10.84
▁gấu	-10.84
▁méxico	-10.84
▁sắm	-10.84
▁tẩy	-10.84
▁central	-10.84
▁luyến	-10.84
▁asean	-10.84
▁sủng	-10.84
▁diamond	-10.84
▁phơi	-10.8401
▁phiệt	-10.8401
▁silver	-10.8401
▁nhọn	-10.8401
▁palau	-10.8401
▁osaka	-10.8401
▁đam	-10.8402
▁saipan	-10.8402
▁thở	-10.8403
▁liễu	-10.8403
▁kĩ	-10.8404
▁nồng	-10.8405
▁ss	-10.8405
▁saint	-10.8405
▁state	-10.8406
▁virus	-10.8406
▁vắc	-10.8408
▁alawite	-10.8412
át	-10.8413
▁school	-10.8414
▁inter	-10.8416
khoả	-10.8418
–19	-10.8423
▁dẻ	-10.8438
▁bùi	-10.8439
▁kông	-10.8444
▁arg	-10.8446
▁louis	-10.8447
qua	-10.8451
▁wo	-10.8452
▁chích	-10.8459
]"	-10.8462
▁đày	-10.8463
bryant	-10.8468
▁600	-10.8473
▁tôm	-10.8477
▁(20	-10.8481
▁$	-10.8486
▁(10	-10.8487
mir	-10.8489
rat	-10.849
!)	-10.851
400	-10.8517
ire	-10.8517
▁thổi	-10.8519
ý	-10.8527
ể	-10.8536
▁1945.	-10.8545
hr	-10.8559
ano	-10.8564
▁ex	-10.8573
▁pink	-10.858
spi	-10.8584
ism	-10.8587
▁sea	-10.8589
▁ion	-10.8593
nt	-10.8597
▁iv	-10.8597
▁bre	-10.8613
ity	-10.8623
đã	-10.8624
thế	-10.8625
với	-10.8626
hun	-10.8632
▁terp	-10.8634
41	-10.8636
old	-10.8643
ái	-10.8653
▁dế	-10.8654
▁khố	-10.8656
31	-10.8661
gb	-10.8665
▁vale	-10.8671
▁dò	-10.8685
ừng	-10.869
khu	-10.8691
▁micro	-10.8692
bao	-10.8693
▁mì	-10.8695
▁comb	-10.8698
▁masan	-10.8699
▁uda	-10.8699
▁frank	-10.8703
▁2010–11	-10.8703
▁concacaf	-10.8703
▁hawaii	-10.8703
▁luzon	-10.8703
▁mặn	-10.8703
▁sẫm	-10.8703
▁tắm	-10.8703
▁uranus	-10.8703
▁kaiser	-10.8703
arthur	-10.8704
komatsu	-10.8704
▁thề	-10.8704
▁shell	-10.8705
▁chuyền	-10.8705
▁albert	-10.8705
▁taylor	-10.8707
▁bode	-10.8709
▁sushi	-10.8709
▁ngài	-10.871
▁ngâm	-10.871
▁lóc	-10.8712
waka	-10.8716
▁white	-10.8716
▁đầm	-10.872
▁sil	-10.8726
63	-10.873
?)	-10.8736
kidd	-10.8746
▁fushimi	-10.8751
sei	-10.8754
▁ali	-10.8756
▁eu	-10.8763
▁tràng	-10.8771
▁xi	-10.8772
▁khuất	-10.8773
yaku	-10.8782
▁55	-10.8792
▁46	-10.8807
ous	-10.8809
100	-10.8809
▁vợt	-10.8809
▁72	-10.8811
star	-10.8817
out	-10.8824
hō	-10.8829
▁ong	-10.8847
38	-10.8855
▁hí	-10.8856
▁thùng	-10.8859
▁mary	-10.8865
sho	-10.8873
▁hong	-10.8877
joo	-10.8881
▁mina	-10.8884
▁ye	-10.8888
ida	-10.8889
▁vượng	-10.8892
▁rod	-10.8896
▁bell	-10.893
thái	-10.8936
liên	-10.8938
đồng	-10.8941
▁2004.	-10.8941
tự	-10.8945
rock	-10.8945
chiến	-10.8953
năng	-10.8971
4),	-10.8989
▁xí	-10.8996
▁ber	-10.8998
▁sect	-10.8998
part	-10.8999
▁build	-10.9009
▁mũ	-10.9009
rải	-10.9012
▁film	-10.9012
孝	-10.9016
▁2009–10	-10.9016
▁ackerman	-10.9016
▁andrew	-10.9016
▁liverpool	-10.9016
▁lõi	-10.9016
▁nhẫn	-10.9016
▁pixel	-10.9016
▁lụt	-10.9016
▁đạm	-10.9016
▁nghiệt	-10.9016
▁thiếc	-10.9016
▁1963	-10.9018
▁miui	-10.9018
▁johnson	-10.902
▁tuấn	-10.902
▁1938	-10.902
▁1933	-10.9022
▁1912	-10.9024
▁rỡ	-10.9027
▁hãi	-10.9036
▁(3	-10.904
▁khống	-10.9041
▁flower	-10.9046
chin	-10.9051
▁gb	-10.9054
▁nắp	-10.9055
osa	-10.9055
theo	-10.9064
uga	-10.907
▁sol	-10.9072
▁pri	-10.9072
ồng	-10.9083
▁nico	-10.9088
▁mer	-10.91
itu	-10.9101
nos	-10.9106
ani	-10.9107
▁riders	-10.9108
▁bắp	-10.9115
▁nghiêng	-10.9132
▁lội	-10.9135
ate	-10.9136
top	-10.9137
.500	-10.916
af	-10.9172
▁ag	-10.9175
▁triệ	-10.9182
▁nú	-10.9197
tham	-10.9203
▁des	-10.9209
▁2001,	-10.9211
▁america	-10.9214
iii	-10.9223
▁ngan	-10.9234
port	-10.9253
▁sada	-10.9253
[	-10.9255
album	-10.9257
jan	-10.9267
field	-10.9267
▁kar	-10.9268
300	-10.927
ỡ	-10.9285
▁arm	-10.9297
ship	-10.9298
õ	-10.9315
▁got	-10.932
▁her	-10.9329
ev	-10.9331
▁latin	-10.9338
▁chainsmokers	-10.9338
▁desktop	-10.9338
▁dewey	-10.9338
▁facebook	-10.9338
▁groom	-10.9338
▁hận	-10.9338
▁kyuranger	-10.9338
▁majuro	-10.9338
▁nagoya	-10.9338
▁orpington	-10.9338
▁ruộng	-10.9338
▁bưu	-10.9338
▁rùa	-10.9339
▁krw	-10.9339
▁strange	-10.9339
▁virginia	-10.9339
▁radio	-10.9339
▁phước	-10.9339
▁ơn	-10.9339
▁japan	-10.9339
▁sentai	-10.9339
▁teika	-10.9339
▁muỗi	-10.9339
▁whi	-10.9339
▁fiji	-10.9339
▁senshi	-10.934
▁kurdi	-10.934
▁1931	-10.9341
▁rô	-10.9342
▁fuji	-10.9342
▁dội	-10.9345
▁bầy	-10.9345
▁khoẻ	-10.9346
▁latinh	-10.9347
▁sừng	-10.9348
▁twice	-10.9356
▁flo	-10.9357
▁ngãi	-10.9359
▁sony	-10.9359
obi	-10.9365
▁mate	-10.9374
▁kiss	-10.9378
▁xinh	-10.9383
uru	-10.9384
sung	-10.9384
▁khôn	-10.9398
▁wabi	-10.9406
tơ	-10.9408
sn	-10.9408
▁chile	-10.9409
▁04	-10.9411
▁(13	-10.9417
ico	-10.9418
▁kara	-10.9423
ọn	-10.9427
ồi	-10.9436
ms	-10.9438
▁steve	-10.9439
▁hen	-10.9445
▁don	-10.9456
able	-10.9457
ness	-10.9471
▁hiro	-10.9472
nis	-10.9474
▁1970,	-10.9493
▁young	-10.9494
▁khát	-10.9499
ik	-10.9505
▁wang	-10.9513
yeon	-10.9513
sco	-10.9516
yuki	-10.9517
▁—	-10.9538
kami	-10.9566
tie	-10.9569
▁yoon	-10.957
▁hum	-10.9577
▁quà	-10.958
giải	-10.9593
nó	-10.9613
▁1943.	-10.9615
▁marx	-10.9619
▁(15	-10.9625
▁eun	-10.9634
ero	-10.9644
oka	-10.9667
▁cro	-10.9671
uli	-10.9671
▁cẩm	-10.9672
▁lingayen	-10.9672
▁nợ	-10.9672
▁reagan	-10.9672
▁tiệc	-10.9672
▁sohye	-10.9672
▁ghế	-10.9672
▁witch	-10.9672
▁yamada	-10.9672
doctor	-10.9672
▁npc	-10.9672
▁truất	-10.9672
▁clinton	-10.9672
▁chiết	-10.9672
▁hitler	-10.9673
▁hanja	-10.9673
▁vạch	-10.9673
▁chris	-10.9674
▁1939	-10.9675
▁soái	-10.9676
▁app	-10.9676
▁mịn	-10.9677
▁nương	-10.9678
tây	-10.9679
▁yoshino	-10.9679
▁thâm	-10.9679
▁tuyền	-10.9692
▁miến	-10.9692
/2015	-10.9693
==	-10.9694
▁hydro	-10.9695
uth	-10.97
▁life	-10.9702
end	-10.9707
▁lệch	-10.9714
▁islands	-10.9716
ld	-10.9718
▁dynamo	-10.9718
rei	-10.9722
▁chungha	-10.9723
▁plan	-10.9726
▁11.	-10.9727
eri	-10.9728
stan	-10.9732
▁52	-10.9733
▁gun	-10.9748
onia	-10.975
▁1949,	-10.9752
▁1,5	-10.9768
▁au	-10.9771
dar	-10.9785
▁chôn	-10.9811
color	-10.9814
ua	-10.9833
ska	-10.9837
▁cụt	-10.9856
▁tama	-10.9867
pol	-10.99
"]	-10.9902
4%	-10.9923
▁pal	-10.9932
▁47	-10.9932
ăn	-10.9941
young	-10.9949
▁2-1	-10.9975
suke	-10.9991
nne	-10.9994
ởi	-11.0007
▁2005.	-11.0011
▁kan	-11.0013
ever	-11.0013
ẩu	-11.0016
▁aberdeen	-11.0017
▁association	-11.0017
▁brazil	-11.0017
▁lặc	-11.0017
▁lựu	-11.0017
▁trạch	-11.0017
▁vegas	-11.0017
▁iceland	-11.0017
▁mõm	-11.0017
ー	-11.0017
▁sôi	-11.0017
▁thoi	-11.0017
▁qatar	-11.0017
▁bernard	-11.0017
▁luồng	-11.0017
▁castro	-11.0017
▁marshall	-11.0018
▁lữ	-11.0018
▁hước	-11.0018
▁liều	-11.0019
▁1967	-11.002
▁juan	-11.0021
▁open	-11.0021
ounce	-11.0021
▁khứu	-11.0028
bà	-11.0029
iêu	-11.0029
han	-11.003
▁phẳng	-11.0032
▁dịu	-11.0038
▁seni	-11.0043
▁fo	-11.0054
ves	-11.007
set	-11.0071
▁cua	-11.0072
_4	-11.0073
51	-11.0075
▁(2011)	-11.0078
▁fin	-11.0082
▁wood	-11.0087
▁shirakawa	-11.0091
▁lộn	-11.0092
▁lau	-11.0099
sky	-11.012
uỷ	-11.0133
▁buru	-11.014
ân	-11.015
▁67	-11.0167
-5	-11.0171
ome	-11.0188
wind	-11.0196
moto	-11.0197
9%	-11.0212
tive	-11.0216
▁68	-11.0223
all	-11.0223
rom	-11.0227
▁type	-11.0238
▁gal	-11.0241
▁dio	-11.0249
▁(6	-11.0256
▁kur	-11.0267
▁1944.	-11.027
▁kos	-11.0285
ỉ	-11.0285
era	-11.0289
indian	-11.029
primulina	-11.0291
nếu	-11.0292
▁abe	-11.0293
bon	-11.0295
tre	-11.0295
▁2002,	-11.03
ali	-11.0302
cũng	-11.0305
ăm	-11.0309
gs	-11.0313
pen	-11.0319
uro	-11.0319
▁joon	-11.032
▁ổ	-11.0326
▁malay	-11.0328
ial	-11.0333
oli	-11.0343
▁lư	-11.0351
huynh	-11.0361
▁39	-11.0366
▁thạc	-11.0366
皇后	-11.0374
三	-11.0374
▁argentina	-11.0374
▁carpet	-11.0374
▁compact	-11.0374
▁corporation	-11.0374
▁cậy	-11.0374
▁edinburgh	-11.0374
▁festival	-11.0374
▁kennedy	-11.0374
▁đúc	-11.0374
▁panama	-11.0374
▁takita	-11.0374
▁acid	-11.0374
▁ớt	-11.0374
▁kanmu	-11.0374
▁nhiễu	-11.0374
▁ngơi	-11.0374
▁tenmu	-11.0375
▁camera	-11.0375
▁kitô	-11.0375
▁xướng	-11.0375
▁dừa	-11.0377
▁1928	-11.0378
▁miên	-11.0379
▁parkson	-11.0379
▁gác	-11.0379
▁jiro	-11.0379
▁shinto	-11.0382
▁kình	-11.0382
▁exo	-11.0384
▁3–1	-11.0388
▁shige	-11.039
akira	-11.0391
str	-11.0391
uala	-11.0393
▁180	-11.0397
▁deal	-11.0398
▁túy	-11.0401
▁hood	-11.0401
▁af	-11.0402
▁lũy	-11.0404
▁gary	-11.0411
▁tựu	-11.0411
naga	-11.0417
hei	-11.0418
bahn	-11.0418
▁đặ	-11.0423
fc	-11.0427
▁1.000	-11.0435
▁vol	-11.0439
▁toba	-11.0455
▁cơm	-11.0457
6.	-11.0459
▁1946.	-11.0462
hà	-11.0467
▁dave	-11.0469
ney	-11.0474
niên	-11.0475
tus	-11.0484
shan	-11.0491
/2016	-11.0493
▁lạng	-11.0502
▁tát	-11.051
▁hò	-11.0511
lor	-11.0526
▁130	-11.0526
▁mont	-11.0527
▁07	-11.0535
lv	-11.0536
▁jar	-11.0546
▁end	-11.0547
▁08	-11.0554
đông	-11.0565
tter	-11.0567
ant	-11.0573
ski	-11.0574
▁104	-11.0594
dor	-11.0598
▁roman	-11.0604
▁xà	-11.061
ủ	-11.0617
▁nhan	-11.062
▁dia	-11.0641
▁56	-11.0655
kim	-11.0655
*	-11.0661
gồm	-11.0663
▁700	-11.0663
chúng	-11.0674
▁khê	-11.0678
▁ngo	-11.068
▁bt	-11.0681
mis	-11.0706
ens	-11.0724
▁methyl	-11.0728
▁kai	-11.073
▁easter	-11.0735
▁ana	-11.074
/2.8	-11.0744
ifolia	-11.0744
▁amazon	-11.0744
▁araucana	-11.0744
▁director	-11.0744
▁donetsk	-11.0744
▁huống	-11.0744
▁jenkins	-11.0744
▁macedonia	-11.0744
▁saturn	-11.0744
▁trôi	-11.0744
▁1–0	-11.0744
▁chester	-11.0744
▁gáy	-11.0744
▁docker	-11.0744
▁phượng	-11.0744
▁berlin	-11.0745
▁zedd	-11.0745
▁huế	-11.0745
▁ltd	-11.0745
▁kabang	-11.0745
▁2-0	-11.0745
▁hái	-11.0747
▁prime	-11.0747
▁1977	-11.0748
▁1929	-11.0749
▁county	-11.0749
▁rise	-11.0753
▁edwards	-11.0755
▁hibiki	-11.0755
▁65	-11.0757
▁bal	-11.0761
▁bệ	-11.0762
▁?)	-11.0762
▁bantu	-11.0775
▁that	-11.0776
ose	-11.0779
▁mint	-11.0781
uble	-11.0783
▁chặng	-11.0784
▁post	-11.0785
▁von	-11.0787
▁bộc	-11.0789
▁mầm	-11.079
▁cựa	-11.0791
kg	-11.0792
▁take	-11.0796
wer	-11.081
tama	-11.082
ồ	-11.0821
▁edo	-11.0834
ona	-11.085
pu	-11.0851
▁huynh	-11.0851
8.	-11.0852
▁key	-11.0856
▁dực	-11.0862
dan	-11.0882
▁0	-11.0893
đa	-11.0907
▁má	-11.0908
▁kali	-11.0909
▁mộng	-11.0911
side	-11.0919
▁đệm	-11.0925
bang	-11.0937
omi	-11.095
bert	-11.095
▁lim	-11.0966
▁kong	-11.0971
ánh	-11.0978
sham	-11.0978
0–	-11.0979
ple	-11.098
▁61	-11.0982
ito	-11.0994
▁gam	-11.1001
king	-11.102
ston	-11.1021
hạ	-11.1024
đi	-11.1031
":	-11.1037
shirakawa	-11.1046
nhóm	-11.1047
nhạc	-11.1047
vùng	-11.1047
phát	-11.1048
tác	-11.1059
điểm	-11.106
cách	-11.107
onic	-11.1077
tính	-11.1096
▁hỉ	-11.1096
hói	-11.1097
qui	-11.1102
ors	-11.1104
▁ren	-11.1107
02	-11.1124
act	-11.1125
iễu	-11.1128
▁1988–1990.	-11.1129
▁ahsoka	-11.1129
▁armenia	-11.1129
▁dối	-11.1129
▁essex	-11.1129
▁himmler	-11.1129
▁madagascar	-11.1129
▁momoland	-11.1129
▁philadelphia	-11.1129
▁twitter	-11.1129
fletcher	-11.1129
▁đớn	-11.1129
▁igbo	-11.1129
tennō	-11.1129
▁hamburg	-11.1129
▁yemen	-11.1129
▁khỉ	-11.113
▁khmer	-11.113
▁quyên	-11.1131
▁khâu	-11.1131
▁chéo	-11.1132
▁thoải	-11.1133
▁nguyền	-11.1133
▁vừng	-11.1133
bia	-11.1137
▁châm	-11.1137
▁chùm	-11.1137
building	-11.1137
▁mike	-11.1142
▁hoạn	-11.1144
▁hối	-11.1146
▁sal	-11.1146
pan	-11.1147
▁bơ	-11.1149
rain	-11.115
▁cám	-11.1159
▁toki	-11.1162
▁light	-11.1179
▁dâm	-11.1182
▁41	-11.1186
▁cắp	-11.119
illa	-11.1195
▁túng	-11.12
round	-11.1204
▁primulina	-11.1219
▁mur	-11.1222
uta	-11.1223
ũ	-11.1226
▁phiến	-11.123
▁bung	-11.1236
shu	-11.1243
▁bus	-11.1245
▁out	-11.1245
▁right	-11.1248
non	-11.1267
▁phím	-11.1268
bol	-11.127
sion	-11.1271
oma	-11.1275
▁que	-11.1276
▁hon	-11.1277
▁250	-11.128
▁ama	-11.129
ón	-11.1293
▁jan	-11.1296
▁seo	-11.1298
▁hei	-11.1303
▁roi	-11.1312
▁vành	-11.132
tomi	-11.1323
▁hee	-11.1323
ww	-11.1327
nit	-11.1329
"”	-11.1334
ram	-11.1336
út	-11.1352
▁gre	-11.1374
▁alan	-11.1374
▁(5	-11.1381
nu	-11.1385
▁cri	-11.1393
▁war	-11.1398
▁mau	-11.14
ủi	-11.1414
tar	-11.1414
clar	-11.1419
▁sch	-11.1428
gua	-11.1428
▁karl	-11.1435
rum	-11.1438
▁max	-11.1441
để	-11.1448
▁1959.	-11.1449
sin	-11.1474
cl	-11.1478
ầu	-11.1479
low	-11.1484
tru	-11.1485
ễ	-11.1497
▁girl	-11.1511
uýt	-11.1516
▁mắn	-11.1522
itz	-11.1522
親王	-11.1528
▁aleppo	-11.1529
▁carolina	-11.1529
▁chelsea	-11.1529
▁comcast	-11.1529
▁destron	-11.1529
▁gradient	-11.1529
▁huỳnh	-11.1529
▁kumite	-11.1529
▁magneto	-11.1529
▁manchester	-11.1529
▁mulryne	-11.1529
▁norfolk	-11.1529
▁rửa	-11.1529
▁sinclair	-11.1529
▁subaru	-11.1529
▁thấu	-11.1529
▁yucca	-11.1529
▁ốm	-11.1529
▁cưỡng	-11.1529
▁grisha	-11.1529
▁iraq	-11.1529
▁kyiv	-11.1529
▁điểu	-11.1529
▁thistle	-11.1529
▁electronics	-11.1529
▁ushio	-11.1529
▁gãy	-11.1529
▁robot	-11.1529
▁braun	-11.1529
▁channel	-11.1529
▁joseph	-11.1529
▁muội	-11.153
▁nhục	-11.153
▁bulgaria	-11.153
▁doãn	-11.153
▁seung	-11.153
▁file	-11.1531
▁wwe	-11.1532
▁lỵ	-11.1532
▁len	-11.1533
▁xù	-11.1534
▁oanh	-11.1536
▁1918	-11.1536
▁project	-11.1537
▁genji	-11.1544
▁vietnam	-11.1544
▁studios	-11.1545
▁great	-11.1546
▁gaon	-11.1546
▁scarlet	-11.1548
▁ichijō	-11.1551
▁xoa	-11.1554
hal	-11.1559
▁tráng	-11.1562
500	-11.1564
▁land	-11.1565
▁đãi	-11.1568
▁cúm	-11.1572
hiro	-11.1574
▁xóm	-11.1575
ele	-11.1575
/2010	-11.1575
▁20.000	-11.1581
▁down	-11.1581
ichi	-11.1594
din	-11.16
.”	-11.1602
▁mika	-11.1603
gun	-11.1621
▁ts	-11.1623
đà	-11.1627
▁vôi	-11.1638
▁blue	-11.1644
hampde	-11.1649
áo	-11.1654
▁korea	-11.1657
ore	-11.1662
▁06	-11.1664
dre	-11.1671
yong	-11.1683
xia	-11.1691
▁1995,	-11.17
head	-11.17
▁2001.	-11.1701
▁fi	-11.1713
▁free	-11.1718
far	-11.1721
▁read	-11.1727
▁uk	-11.1747
▁joo	-11.1752
tomo	-11.1756
die	-11.1759
cher	-11.1761
cô	-11.1765
▁vo	-11.1768
▁2002.	-11.1769
▁152	-11.1786
▁vii	-11.1789
ington	-11.1793
▁1-1	-11.1794
▁hd	-11.1796
▁bill	-11.1808
wal	-11.1817
iya	-11.1829
▁mei	-11.1847
▁mori	-11.1855
cuộc	-11.1864
nobu	-11.1867
wiki	-11.1867
wabi	-11.1869
▁bin	-11.1872
chính	-11.1873
odon	-11.1881
▁nishi	-11.1882
làm	-11.1898
▁họng	-11.1906
▁giấ	-11.1913
iết	-11.1913
▁philippine	-11.1928
▁award	-11.1932
▁1-2	-11.1942
▁jessi	-11.1944
和	-11.1945
ø	-11.1945
ä	-11.1945
č	-11.1945
▁dormammu	-11.1945
▁glosso	-11.1945
▁nhắn	-11.1945
▁rậm	-11.1945
−	-11.1945
▁anpơ	-11.1945
▁bangkok	-11.1945
▁diễm	-11.1945
▁đùa	-11.1945
didymocarpus	-11.1945
▁hadid	-11.1945
▁takeuchi	-11.1946
▁nhược	-11.1946
▁takauji	-11.1946
▁nghênh	-11.1946
▁bengal	-11.1946
▁jeong	-11.1946
▁kuuga	-11.1946
▁thệ	-11.1947
▁press	-11.1947
▁mạo	-11.1949
▁xix	-11.195
▁gordo	-11.195
▁chậu	-11.195
▁fsc	-11.1951
▁luka	-11.1952
▁nát	-11.1952
▁boss	-11.1952
net	-11.1953
▁rovers	-11.1953
▁nick	-11.1954
▁rosecomb	-11.1954
▁fox	-11.1955
▁phàm	-11.1955
arab	-11.1958
▁diệp	-11.196
akura	-11.1962
▁rèn	-11.1963
▁sbs	-11.1964
▁tía	-11.1964
▁royal	-11.1966
▁gù	-11.1967
▁lánh	-11.1969
eș	-11.1969
▁mường	-11.1974
▁high	-11.1976
▁rosa	-11.198
iệt	-11.1981
▁bốt	-11.1982
ót	-11.1983
cv	-11.1985
▁lady	-11.199
▁weber	-11.1996
▁shakhtar	-11.2004
hép	-11.2005
troph	-11.2007
cio	-11.2013
nijō	-11.2016
▁3.000	-11.2019
ref	-11.2024
▁xua	-11.2027
▁54	-11.2028
▁1998.	-11.2037
▁model	-11.2044
7%	-11.2047
▁beat	-11.206
...)	-11.2064
▁cống	-11.207
▁1942	-11.2075
▁shō	-11.2077
▁auto	-11.2078
apolis	-11.2093
▁aa	-11.2094
▁indian	-11.2099
wang	-11.2112
▁aps	-11.2112
chel	-11.2119
▁75	-11.2128
org	-11.2148
óc	-11.215
▁cia	-11.2152
ations	-11.2154
▁62	-11.2159
long	-11.216
▁gar	-11.2164
ball	-11.2169
áng	-11.2169
▁soi	-11.217
▁sim	-11.2175
52	-11.2183
▁gui	-11.2186
▁nang	-11.2192
▁michi	-11.2193
uchi	-11.22
lly	-11.2219
▁rose	-11.224
angel	-11.2242
rắc	-11.2248
▁1942.	-11.2251
▁2003.	-11.2271
ock	-11.2276
▁1969.	-11.2276
▁nóc	-11.2278
▁sub	-11.2287
▁53	-11.2289
huyện	-11.2293
ius	-11.2293
▁(?	-11.2294
ova	-11.2294
black	-11.2298
bình	-11.2301
giờ	-11.2301
▁mor	-11.2301
▁grand	-11.2302
tình	-11.2305
ện	-11.2307
gram	-11.2315
▁cảo	-11.2325
▁hoạ	-11.2336
▁thê	-11.2362
hard	-11.2367
▁bàng	-11.2371
▁lun	-11.2372
chornomorets	-11.238
▁adjuvant	-11.238
▁bận	-11.238
▁columbia	-11.238
▁cười	-11.238
▁cắm	-11.238
▁darkseid	-11.238
▁gemmei	-11.238
▁gruzia	-11.238
▁komnenos	-11.238
▁oregon	-11.238
▁qualcomm	-11.238
▁quicksilver	-11.238
▁release	-11.238
▁stephen	-11.238
▁tupapa	-11.238
▁universal	-11.238
▁đắm	-11.238
▁diệc	-11.238
▁nepal	-11.238
▁remix	-11.238
▁trộm	-11.238
▁đạc	-11.238
▁1926	-11.238
▁sarawak	-11.238
▁yoojung	-11.238
▁design	-11.2381
▁oscar	-11.2381
▁chước	-11.2381
▁trượng	-11.2381
▁moyes	-11.2381
▁costa	-11.2384
▁1907	-11.2385
▁mượt	-11.2386
ophy	-11.2387
▁toa	-11.2387
▁alex	-11.2389
▁100%	-11.2391
▁fort	-11.2391
▁tể	-11.2391
bí	-11.2391
▁noah	-11.2392
▁1919	-11.2392
▁ráo	-11.2393
▁brit	-11.2393
ique	-11.2395
▁masao	-11.24
eve	-11.2403
ụng	-11.2404
▁kwajalein	-11.2404
▁xít	-11.2406
mori	-11.2408
▁point	-11.2408
▁acer	-11.2419
▁hãm	-11.2421
▁92	-11.2422
▁macro	-11.2432
▁bon	-11.2434
▁(184	-11.2438
ier	-11.2439
lus	-11.2444
ãng	-11.2446
04	-11.2447
▁sumi	-11.2453
hắt	-11.2463
polo	-11.2464
ĩnh	-11.2467
row	-11.2477
▁arc	-11.2483
haru	-11.2486
zen	-11.2491
ash	-11.2501
ssar	-11.2507
ord	-11.2512
hô	-11.2513
abi	-11.2521
chen	-11.2524
én	-11.2524
bun	-11.2544
▁gả	-11.2545
▁opera	-11.2546
yển	-11.2549
para	-11.2553
kō	-11.2555
taff	-11.2557
mos	-11.2559
mia	-11.2578
▁2000.	-11.2581
▁base	-11.2593
atar	-11.2594
▁bank	-11.26
▁1991,	-11.2605
▁tí	-11.262
▁hệt	-11.2622
▁bô	-11.2636
cả	-11.2641
▁dr	-11.2649
▁tảo	-11.2651
▁1999.	-11.266
=	-11.2676
tico	-11.2686
pat	-11.2695
▁der	-11.2706
kom	-11.2709
àng	-11.2709
lee	-11.2723
▁cal	-11.273
▁zi	-11.2731
▁tum	-11.2734
fr	-11.2736
dell	-11.2739
hiệp	-11.275
yeong	-11.2751
gọi	-11.2753
daigo	-11.2755
viết	-11.2757
▁cer	-11.2759
▁hans	-11.276
▁sur	-11.2763
▁hiếp	-11.2773
hey	-11.2781
ịt	-11.2781
war	-11.2782
ít	-11.2782
▁1925	-11.2784
▁2,5	-11.2784
▁mồ	-11.2806
▁core	-11.2807
▁studio	-11.2817
▁tae	-11.2818
ột	-11.2821
▁kẽ	-11.2823
▁4:	-11.2824
21,	-11.2825
▁vươn	-11.2828
/2014	-11.2829
▁chán	-11.2834
明	-11.2835
▁liquid	-11.2835
成	-11.2835
▁afghanistan	-11.2835
▁alexander	-11.2835
▁avatiu	-11.2835
▁bẫy	-11.2835
▁dundee	-11.2835
▁marshmello	-11.2835
▁metallica	-11.2835
▁ngặt	-11.2835
▁nhụy	-11.2835
▁pictures	-11.2835
▁tachibana	-11.2835
▁thấm	-11.2835
▁unesco	-11.2835
▁university	-11.2835
loxocarpus	-11.2835
▁gũi	-11.2835
▁thạo	-11.2835
▁thạp	-11.2835
▁center	-11.2835
▁reiss	-11.2835
▁nêm	-11.2835
▁kwh	-11.2835
▁clb	-11.2835
▁sêrêpôk	-11.2835
▁pony	-11.2836
▁nhí	-11.2837
▁trễ	-11.2837
▁gieo	-11.2838
▁lầy	-11.2838
▁dán	-11.2838
▁gumi	-11.2838
▁latham	-11.2839
▁vác	-11.2841
master	-11.2841
▁lắk	-11.2843
▁50%	-11.2844
▁1900	-11.2845
ruha	-11.2847
/2009	-11.2847
▁rạch	-11.2848
▁gien	-11.2848
▁sỡ	-11.2848
▁callback	-11.2848
▁samurai	-11.2848
cloud	-11.2849
▁mìn	-11.2853
▁đấy	-11.2854
▁20%	-11.2854
▁nén	-11.2855
▁shiro	-11.2866
▁soga	-11.287
▁fair	-11.2877
▁mako	-11.2878
kov	-11.2884
▁night	-11.2888
sông	-11.2889
▁mỏi	-11.289
▁kyung	-11.29
▁money	-11.2901
ook	-11.2905
▁94	-11.2907
▁xo	-11.2907
▁bts	-11.2913
pl	-11.2915
get	-11.2918
▁ngất	-11.2921
gon	-11.2923
▁vila	-11.2923
▁eir	-11.2933
_3	-11.2941
wo	-11.2941
▁ft	-11.2947
▁xay	-11.296
▁ip	-11.2977
▁1975.	-11.2993
▁games	-11.2996
dō	-11.3
saki	-11.3016
▁wan	-11.3017
▁way	-11.3039
▁naga	-11.304
chō	-11.3051
▁kha	-11.3067
▁lột	-11.3082
sada	-11.3083
love	-11.3084
bas	-11.3089
▁mega	-11.3094
col	-11.3097
▁mah	-11.3104
▁rica	-11.3104
kyo	-11.3108
hiếu	-11.3113
miya	-11.3114
▁kami	-11.3117
nữ	-11.3125
â	-11.3144
▁88	-11.3149
nara	-11.315
▁alt	-11.3171
yang	-11.3191
ndra	-11.3208
ingersoll	-11.3227
shocker	-11.3229
tạm	-11.3229
phần	-11.3231
sol	-11.3233
nhật	-11.3236
vương	-11.3237
▁india	-11.3237
▁has	-11.3264
lord	-11.3265
linh	-11.3274
▁sd	-11.3275
▁cỗ	-11.3282
▁kang	-11.3294
ỵ	-11.3298
▁63	-11.3302
họ	-11.3308
epithema	-11.3311
iformes	-11.3311
spiritu	-11.3311
▁alameda	-11.3311
▁alanguilan	-11.3311
▁chapecoense	-11.3311
▁chuối	-11.3311
▁glasgow	-11.3311
▁guatemala	-11.3311
▁invict	-11.3311
▁kanthaka	-11.3311
▁loopback	-11.3311
▁lắm	-11.3311
▁melbourne	-11.3311
▁titikaveka	-11.3311
阿	-11.3311
▁alaska	-11.3311
▁grongi	-11.3311
▁nòi	-11.3311
▁konoe	-11.3311
▁mệt	-11.3311
▁ladies	-11.3311
安	-11.3311
▁2–0	-11.3311
▁kyōto	-11.3311
▁3–2	-11.3311
▁zyuohger	-11.3311
knapp	-11.3311
▁imperia	-11.3311
▁1-0	-11.3311
▁nicobar	-11.3311
▁merina	-11.3312
▁showtime	-11.3312
▁thóc	-11.3312
▁(2012)	-11.3312
▁kenji	-11.3313
▁quấn	-11.3313
▁busan	-11.3315
▁1937	-11.3315
▁khiêm	-11.3316
▁1934	-11.3316
ereng	-11.3317
▁1935	-11.3318
▁melania	-11.3319
▁xê	-11.3321
3),	-11.3321
▁nhôm	-11.3321
▁gân	-11.3322
▁vải	-11.3322
ài	-11.3324
▁tiệm	-11.3325
▁ios	-11.3327
bit	-11.3327
▁kép	-11.3328
▁sương	-11.333
▁kề	-11.333
▁2021.	-11.3332
▁lùng	-11.3334
-21	-11.3342
▁admiralty	-11.335
▁cấy	-11.335
▁levi	-11.3353
▁ghét	-11.3358
▁stan	-11.3358
▁adams	-11.336
▁pak	-11.3362
▁yến	-11.3364
▁20,	-11.3366
▁dnipro	-11.3375
▁1000	-11.3378
▁báu	-11.3378
▁roma	-11.3387
▁hao	-11.3397
cao	-11.3398
▁box	-11.3402
▁ngưng	-11.3413
▁ngu	-11.3419
bird	-11.3423
▁miya	-11.3423
▁2.000	-11.3425
▁ns	-11.3425
▁moro	-11.3431
▁2019.	-11.3448
▁thiêng	-11.3464
hill	-11.3464
▁dor	-11.3466
▁kyo	-11.3469
▁yang	-11.3471
agn	-11.3482
▁bok	-11.349
▁2020.	-11.3498
▁trụi	-11.3504
hồ	-11.3512
▁bla	-11.3529
msg	-11.3529
▁unc	-11.3535
▁ash	-11.3539
ượt	-11.3542
▁(1/	-11.3545
nik	-11.3549
what	-11.3561
liga	-11.3564
▁joe	-11.3567
▁135	-11.3618
ỉa	-11.3623
▁lung	-11.3624
▁bành	-11.3631
600	-11.3644
▁fro	-11.3656
dead	-11.3661
yoshi	-11.367
▁sốt	-11.3675
ati	-11.3686
▁(14	-11.3689
lông	-11.3689
hải	-11.3693
graph	-11.3695
▁call	-11.3698
ă	-11.37
▁đặn	-11.3702
town	-11.3727
°	-11.3728
mặt	-11.3729
thực	-11.3729
quốc	-11.3729
metal	-11.3735
dân	-11.3738
ự	-11.3742
mark	-11.3744
vô	-11.3744
medi	-11.3748
bắc	-11.3748
▁sả	-11.3757
shima	-11.3758
xem	-11.3776
ika	-11.3782
▁sụ	-11.3791
úp	-11.3792
cula	-11.3794
▁ủ	-11.3796
▁vả	-11.38
▁nike	-11.3802
▁trọn	-11.3807
文	-11.3811
·	-11.3811
聖	-11.3811
codonoboea	-11.3811
lagocephalus	-11.3811
▁elizabeth	-11.3811
▁hōjō	-11.3811
▁hươu	-11.3811
▁montenegro	-11.3811
▁nigeria	-11.3811
▁nordstrom	-11.3811
▁optimus	-11.3811
▁rưỡi	-11.3811
▁swansea	-11.3811
▁wirathu	-11.3811
中	-11.3811
人	-11.3811
司	-11.3811
▁gộp	-11.3811
▁lhasa	-11.3811
▁yết	-11.3811
▁(2014)	-11.3811
▁lụa	-11.3811
▁hẻm	-11.3811
▁jyp	-11.3811
▁death	-11.3811
▁pluto	-11.3811
天皇	-11.3811
frame	-11.3811
▁folk	-11.3811
▁coloma	-11.3811
stream	-11.3811
▁zeke	-11.3813
▁tenji	-11.3814
▁hân	-11.3814
▁brothers	-11.3816
▁1923	-11.3817
▁walt	-11.3817
▁asia	-11.3817
▁80%	-11.3819
▁mầu	-11.3819
▁90%	-11.382
▁amor	-11.3821
▁tồi	-11.3822
▁3-1	-11.3823
▁1890	-11.3824
▁1911	-11.3825
▁rễ	-11.3826
uji	-11.3826
▁1910	-11.3826
ower	-11.3827
▁logo	-11.3827
shire	-11.3829
▁sạ	-11.383
▁kikujiro	-11.383
▁brown	-11.3831
anglo	-11.3839
▁general	-11.3843
▁tạc	-11.3845
▁fun	-11.3846
hán	-11.3849
▁365	-11.385
▁tản	-11.3853
ville	-11.3866
▁ron	-11.3868
▁25%	-11.3869
▁coli	-11.3873
hình	-11.3874
▁hope	-11.3877
ōji	-11.388
▁burma	-11.3881
▁108	-11.3884
▁2016)	-11.3884
▁hãn	-11.3895
▁your	-11.3899
eira	-11.3899
▁nika	-11.3904
ette	-11.3904
▁ari	-11.392
▁field	-11.3942
zer	-11.3944
▁ngh	-11.3955
0%	-11.396
▁mến	-11.3962
▁equ	-11.3963
orp	-11.3963
èo	-11.3965
▁old	-11.3976
mei	-11.3991
▁mú	-11.4011
3/	-11.4013
rái	-11.4032
here	-11.4034
ơi	-11.4034
_2	-11.4036
▁185	-11.4037
lim	-11.4039
dal	-11.4043
anti	-11.4063
▁né	-11.4068
▁kei	-11.4084
ía	-11.4095
▁sei	-11.4098
▁let	-11.41
now	-11.4127
savo	-11.414
▁test	-11.415
▁ise	-11.416
kle	-11.4163
▁chen	-11.4175
▁iso	-11.4179
▁nạ	-11.4183
▁hero	-11.4186
shū	-11.4191
▁win	-11.4211
dore	-11.4216
ust	-11.4219
▁kawa	-11.4223
▁đàng	-11.423
cum	-11.4232
inch	-11.4249
pretty	-11.4254
bridge	-11.4254
fushimi	-11.4254
fujiwara	-11.4256
mặc	-11.4256
đối	-11.4256
john	-11.4256
điều	-11.4256
▁dis	-11.426
▁1993.	-11.4261
tiền	-11.4262
▁71	-11.4265
thanh	-11.4265
moon	-11.4269
ừ	-11.4274
gà	-11.4276
cổ	-11.4278
▁74	-11.4288
-90	-11.429
hạng	-11.4292
ense	-11.4299
ước	-11.43
how	-11.4306
▁fide	-11.4307
câu	-11.4311
▁rom	-11.4312
code	-11.4316
▁rain	-11.4325
▁vờ	-11.4334
ừa	-11.4336
源	-11.4337
а	-11.4337
nyungar	-11.4337
▁byzantine	-11.4337
▁client	-11.4337
▁comedy	-11.4337
▁comics	-11.4337
▁cuenca	-11.4337
▁florida	-11.4337
▁future	-11.4337
▁kamakura	-11.4337
▁moldova	-11.4337
▁street	-11.4337
▁sutoku	-11.4337
▁tampuan	-11.4337
▁thoáng	-11.4337
▁tweet	-11.4337
宮	-11.4337
▁flash	-11.4337
▁johor	-11.4337
▁space	-11.4337
▁đọng	-11.4337
▁(2015)	-11.4337
▁3–0	-11.4337
▁rìa	-11.4337
郎	-11.4337
suzaku	-11.4337
▁yamato	-11.4337
▁papua	-11.4337
▁story	-11.4337
▁animation	-11.4337
▁shōmu	-11.4338
▁khéo	-11.4338
▁seiwa	-11.4338
▁eugen	-11.4339
▁qad	-11.4339
zyg	-11.434
▁charleston	-11.434
▁year	-11.434
▁(2013)	-11.434
▁jose	-11.4341
▁huỷ	-11.4341
nyva	-11.4341
▁xuồng	-11.4341
▁giêng	-11.4342
▁quật	-11.4342
▁rủ	-11.4342
▁1905	-11.4343
▁xăng	-11.4345
▁đục	-11.4345
▁1924	-11.4345
▁nghiền	-11.4348
▁điên	-11.435
▁billy	-11.4351
▁sego	-11.4352
▁•	-11.4353
▁meki	-11.4354
▁1992.	-11.4357
▁april	-11.4358
▁dạo	-11.4361
▁bangor	-11.4361
over	-11.4362
▁ướt	-11.4362
800	-11.4363
▁baby	-11.4363
▁manor	-11.4363
▁have	-11.4365
▁cole	-11.4375
▁dream	-11.4376
lie	-11.4377
▁gray	-11.4387
ets	-11.4388
▁kameyama	-11.4399
▁dry	-11.4405
▁gold	-11.4406
▁dominica	-11.4406
▁nhú	-11.4411
▁rating	-11.4413
▁đổng	-11.4418
ướng	-11.442
▁pretty	-11.4422
▁wall	-11.4422
koku	-11.4422
ente	-11.4424
▁!	-11.4424
▁thon	-11.4427
brian	-11.4435
spa	-11.4451
▁home	-11.4452
▁xế	-11.4452
▁xii	-11.4453
▁jain	-11.4454
ward	-11.4469
hiện	-11.447
▁140	-11.4472
▁gong	-11.4489
buk	-11.4493
kuni	-11.4495
kawa	-11.4498
("	-11.45
▁49	-11.4504
quan	-11.4507
lg	-11.4514
ben	-11.4515
▁usa	-11.4515
▁76	-11.4518
woo	-11.4535
graf	-11.4544
▁sứa	-11.455
rama	-11.4586
ood	-11.459
▁id	-11.4596
lau	-11.4596
▁mad	-11.4598
edo	-11.4606
▁kin	-11.4607
▁kata	-11.4609
▁khóm	-11.4623
▁1.6	-11.4628
▁woo	-11.4631
saka	-11.4638
ổi	-11.4654
▁gel	-11.4658
▁vũng	-11.4681
vu	-11.4685
giá	-11.4688
lai	-11.4694
hướng	-11.47
▁128	-11.47
phoro	-11.4714
alco	-11.4718
▁dc	-11.4726
▁sir	-11.4753
vor	-11.4757
▁trá	-11.4759
otten	-11.476
aid	-11.4761
▁pho	-11.4786
baria	-11.4789
▁116	-11.4805
vision	-11.4806
#	-11.481
world	-11.4811
giống	-11.4811
nghệ	-11.4811
sống	-11.4811
luật	-11.4815
vũ	-11.4816
thần	-11.4816
hơn	-11.4816
▁trans	-11.4824
động	-11.4834
day	-11.4834
1–1	-11.4839
đây	-11.4842
ào	-11.4843
▁office	-11.4861
▁avenger	-11.4875
mà	-11.4876
/2012	-11.4877
iều	-11.4878
▁serie	-11.4881
iệu	-11.4881
公	-11.4889
▁francis	-11.4892
山	-11.4893
chauncey	-11.4893
cogswell	-11.4893
damrongia	-11.4893
▁algérie	-11.4893
▁cheongdam	-11.4893
▁claflin	-11.4893
▁cleveland	-11.4893
▁corrigan	-11.4893
▁cuộn	-11.4893
▁griffin	-11.4893
▁gắt	-11.4893
▁gối	-11.4893
▁hawkeye	-11.4893
▁hibernian	-11.4893
▁jersey	-11.4893
▁jimyōin	-11.4893
▁kilômét	-11.4893
▁lumpur	-11.4893
▁mamoru	-11.4893
▁murphy	-11.4893
▁palestine	-11.4893
▁paradis	-11.4893
▁pennsylvania	-11.4893
▁showcase	-11.4893
▁shrewsbury	-11.4893
▁slovakia	-11.4893
▁standard	-11.4893
▁trẫm	-11.4893
▁tặc	-11.4893
▁chạp	-11.4893
▁koneru	-11.4893
▁bertel	-11.4893
▁debut	-11.4893
▁obama	-11.4893
▁kazakhstan	-11.4893
▁malek	-11.4893
▁ráp	-11.4893
▁truman	-11.4893
▁victon	-11.4893
caperton	-11.4893
▁ghana	-11.4893
▁dusit	-11.4893
▁michinaga	-11.4893
仁親王	-11.4893
▁mbc	-11.4893
▁haruka	-11.4893
▁165	-11.4894
▁venice	-11.4894
▁nhiêu	-11.4895
▁cạ	-11.4895
▁phil	-11.4895
▁river	-11.4895
▁tịnh	-11.4895
▁motoki	-11.4897
▁lầu	-11.4898
ckland	-11.4898
▁1927	-11.4899
▁plus	-11.49
prism	-11.49
▁ffu	-11.49
▁hăng	-11.4901
▁ngào	-11.4902
▁toei	-11.4903
▁1922	-11.4903
▁feet	-11.4904
▁gán	-11.4904
▁barry	-11.4905
▁polynesia	-11.4905
▁nhạn	-11.4909
kho	-11.491
▁1921	-11.491
▁điềm	-11.491
▁business	-11.4915
▁bể	-11.4915
mã	-11.4915
▁dĩa	-11.492
▁glen	-11.4926
▁mỉ	-11.493
▁asen	-11.4931
▁dật	-11.4931
jung	-11.4937
▁rocky	-11.4941
▁mun	-11.4946
▁kyu	-11.4947
vas	-11.4949
▁lường	-11.4949
▁aja	-11.4953
▁73	-11.4958
▁murakami	-11.4958
cine	-11.497
▁xvii	-11.4973
▁action	-11.4974
▁burn	-11.4975
▁kera	-11.4982
vn	-11.4982
▁ono	-11.4984
▁ah	-11.4988
▁hôi	-11.4989
dis	-11.4993
▁code	-11.4998
iga	-11.4999
▁thúy	-11.5
▁2-3	-11.5005
▁card	-11.5009
rian	-11.5011
toba	-11.5037
-70	-11.5038
đề	-11.5039
hollandia	-11.5047
▁khoan	-11.5053
:30	-11.5055
▁fri	-11.5057
▁mono	-11.5062
▁1970.	-11.5065
burg	-11.5069
lay	-11.5073
▁cd	-11.5076
▁china	-11.5077
▁é	-11.5091
▁95	-11.5095
▁tủ	-11.5102
▁chryso	-11.5108
▁81	-11.5109
ado	-11.5128
éo	-11.5132
▁shah	-11.5137
kon	-11.5138
▁ló	-11.5168
▁bou	-11.517
▁gala	-11.5178
▁125	-11.519
thor	-11.5191
▁(167	-11.5197
▁nhai	-11.5201
▁phùng	-11.5215
ryo	-11.5216
hợp	-11.5219
▁chay	-11.5245
▁cồn	-11.5257
ỷ	-11.5262
rand	-11.5298
▁bỏng	-11.5303
ỳ	-11.5309
rash	-11.531
nsk	-11.5311
▁đếm	-11.5311
▁ib	-11.5316
▁wil	-11.5319
ác	-11.5323
▁lát	-11.5329
▁82	-11.533
elly	-11.5336
-96	-11.5349
roi	-11.5351
▁lia	-11.536
▁59	-11.5374
wara	-11.5376
ầy	-11.5378
▁子	-11.5395
shakhtar	-11.5398
dynamo	-11.5398
stor	-11.5398
ngoại	-11.5399
bắt	-11.5399
đặc	-11.5399
action	-11.54
nhĩ	-11.54
money	-11.5401
trường	-11.5403
chân	-11.5404
dự	-11.5407
seo	-11.5409
lion	-11.541
tata	-11.5411
lý	-11.5412
azi	-11.5431
▁nhạ	-11.5436
▁bur	-11.5442
phone	-11.5443
óa	-11.5447
▁0.	-11.5448
cơ	-11.5448
▁mp	-11.5453
▁shan	-11.5459
tập	-11.5463
▁loa	-11.5464
steam	-11.5465
naka	-11.5472
nhưng	-11.5479
jun	-11.548
ç	-11.5481
mizunoo	-11.5481
▁borneo	-11.5481
▁cavenagh	-11.5481
▁chử	-11.5481
▁eisenhower	-11.5481
▁elasticsearch	-11.5481
▁gestapo	-11.5481
▁giặt	-11.5481
▁hayagriva	-11.5481
▁himalaya	-11.5481
▁honiara	-11.5481
▁instagram	-11.5481
▁inverness	-11.5481
▁khớp	-11.5481
▁kiểng	-11.5481
▁kiệm	-11.5481
▁lawson	-11.5481
▁liberio	-11.5481
▁madrid	-11.5481
▁melanocyte	-11.5481
▁ngoạn	-11.5481
▁nixon	-11.5481
▁peleliu	-11.5481
▁society	-11.5481
▁swift	-11.5481
▁ulcinj	-11.5481
▁vẩy	-11.5481
▁xoắn	-11.5481
▁yoshimitsu	-11.5481
平	-11.5481
院	-11.5481
高	-11.5481
▁bahrain	-11.5481
▁barnum	-11.5481
▁chloe	-11.5481
▁phạn	-11.5481
▁xavier	-11.5481
š	-11.5481
▁boeing	-11.5481
▁bosnia	-11.5481
▁formosa	-11.5481
▁hideko	-11.5481
▁vớt	-11.5481
▁cinema	-11.5481
▁hindu	-11.5481
▁rệt	-11.5481
▁retto	-11.5481
▁label	-11.5481
▁thinq	-11.5481
▁chamdo	-11.5481
▁oama	-11.5481
▁cello	-11.5481
▁evans	-11.5481
▁bobby	-11.5481
▁shigenobu	-11.5481
▁nbc	-11.5481
▁television	-11.5482
[...]	-11.5482
▁julia	-11.5482
isodes	-11.5483
▁kiwi	-11.5483
▁cannes	-11.5483
▁aigun	-11.5483
▁daily	-11.5484
▁roger	-11.5484
▁cove	-11.5485
▁genshō	-11.5485
▁alpha	-11.5486
▁enzyme	-11.5487
▁lăm	-11.5487
▁kick	-11.5488
▁tỳ	-11.5488
▁nọc	-11.5488
▁1913	-11.5488
▁garin	-11.549
▁jimm	-11.5491
▁1917	-11.5491
▁chình	-11.5491
▁beach	-11.5491
▁toạ	-11.5494
▁tamil	-11.5495
/100	-11.55
qđ	-11.55
▁cớ	-11.5501
▁sáo	-11.5502
hcm	-11.5506
▁thiểm	-11.5507
▁hốc	-11.5507
▁650	-11.5509
▁good	-11.5509
▁pama	-11.5511
▁matter	-11.5512
▁pass	-11.5512
▁matsu	-11.5515
ige	-11.552
ỗng	-11.5521
▁bẩn	-11.5522
▁cúc	-11.5524
▁10%	-11.5525
▁thiếp	-11.5529
▁máng	-11.553
myung	-11.5533
▁79	-11.5536
▁chanh	-11.5536
▁hanazono	-11.554
▁yōzei	-11.554
▁ngủi	-11.5544
▁sanjō	-11.5546
temp	-11.5554
▁110	-11.5563
▁movie	-11.5579
▁oni	-11.5591
erry	-11.5595
gall	-11.5596
▁cet	-11.5608
cross	-11.5609
▁nato	-11.5618
shiki	-11.562
▁cọ	-11.5627
▁sâm	-11.5628
▁rung	-11.5632
pro	-11.5639
▁chuy	-11.5639
▁waka	-11.5648
gần	-11.5653
▁kiyo	-11.5657
▁mora	-11.5661
vai	-11.5665
gawa	-11.5679
vich	-11.5681
▁lơ	-11.5681
hàn	-11.5682
iên	-11.5705
▁66	-11.5711
▁thames	-11.5711
sumi	-11.5727
▁spin	-11.5729
ên	-11.5757
hỏa	-11.5764
makin	-11.5765
▁ngà	-11.578
▁jen	-11.5788
▁camp	-11.579
jp	-11.5793
▁cưa	-11.5797
ew	-11.58
▁omi	-11.5805
rdin	-11.5806
▁hel	-11.5827
gno	-11.5829
độ	-11.5841
mini	-11.5857
aceae	-11.586
ywood	-11.5861
▁sr	-11.5869
ping	-11.5879
▁lay	-11.5881
▁tar	-11.5885
lock	-11.5892
▁vạ	-11.5918
0-3	-11.5961
▁but	-11.5968
▁god	-11.5974
kazu	-11.5986
▁hand	-11.599
rō	-11.5995
▁hat	-11.6002
–4	-11.601
▁carl	-11.601
5.000	-11.6016
dnipro	-11.6023
yasu	-11.6023
light	-11.6023
girls	-11.6024
▁hé	-11.6024
đạo	-11.6024
đạt	-11.6024
nghĩa	-11.6024
đầu	-11.6026
về	-11.6027
gil	-11.6027
tina	-11.6028
ola	-11.603
__	-11.6031
▁800	-11.6034
▁pie	-11.6034
vì	-11.6035
kế	-11.6041
nguyên	-11.6044
▁adam	-11.6046
thông	-11.6046
pak	-11.6052
/16	-11.6062
▁vò	-11.6074
▁stri	-11.6079
▁electron	-11.6079
▁edward	-11.6088
▁toshi	-11.6093
mol	-11.6103
other	-11.6105
▁hiroshi	-11.6105
内	-11.6106
е	-11.6106
・	-11.6106
通	-11.6106
megpoid	-11.6106
progressiv	-11.6106
×	-11.6106
ş	-11.6106
▁2007–08	-11.6106
▁adamantium	-11.6106
▁algeria	-11.6106
▁almeida	-11.6106
▁bẩm	-11.6106
▁cockatrice	-11.6106
▁druze	-11.6106
▁giặc	-11.6106
▁heavy	-11.6106
▁holdings	-11.6106
▁honourable	-11.6106
▁hosokawa	-11.6106
▁illinois	-11.6106
▁malvern	-11.6106
▁mototsune	-11.6106
▁nyima	-11.6106
▁palace	-11.6106
▁românia	-11.6106
▁shinkansen	-11.6106
▁sikkim	-11.6106
▁suyễn	-11.6106
▁swahili	-11.6106
▁swainson	-11.6106
▁tẩm	-11.6106
▁uzbekistan	-11.6106
▁vinastas	-11.6106
▁vitamin	-11.6106
娘	-11.6106
寺	-11.6106
ē	-11.6106
▁baroque	-11.6106
▁cruz	-11.6106
▁foster	-11.6106
▁junior	-11.6106
▁leonard	-11.6106
▁lõm	-11.6106
▁second	-11.6106
▁đũa	-11.6106
馬	-11.6106
▁covid	-11.6106
▁kocis	-11.6106
▁akihito	-11.6106
▁yamabe	-11.6106
dashiell	-11.6106
▁featur	-11.6106
▁fukuoka	-11.6106
▁dark	-11.6106
metalurh	-11.6106
▁luther	-11.6106
▁liveshow	-11.6106
▁tsune	-11.6107
▁carbon	-11.6107
://	-11.6107
cbx	-11.6107
▁fiat	-11.6107
▁marcel	-11.6107
▁rhode	-11.6108
▁golovin	-11.6108
▁party	-11.6108
▁trướng	-11.6108
▁keith	-11.6109
▁jackson	-11.6109
▁doom	-11.6109
▁ngả	-11.611
▁prima	-11.611
▁mikha	-11.6111
▁1903	-11.6111
▁tadami	-11.6111
times	-11.6111
▁1906	-11.6111
▁"24"	-11.6112
▁clay	-11.6113
tlé	-11.6113
▁chải	-11.6113
▁dượt	-11.6113
kirk	-11.6114
▁1908	-11.6114
▁lừng	-11.6114
▁70%	-11.6116
▁eunb	-11.6116
▁1916	-11.6116
▁spartans	-11.6117
▁junna	-11.6118
▁khao	-11.6119
▁youth	-11.6119
▁gnu	-11.612
▁area	-11.6121
▁nhũng	-11.6121
▁cover	-11.6126
▁rỉ	-11.6127
▁walter	-11.6129
▁thớ	-11.613
▁khốc	-11.613
▁lót	-11.6131
▁asian	-11.6131
▁paper	-11.614
▁romania	-11.6144
▁kōgon	-11.6147
butsu	-11.615
sang	-11.6158
tei	-11.6168
▁100.000	-11.6169
teen	-11.6173
▁cày	-11.6173
▁77.4	-11.6176
mono	-11.6178
uch	-11.6179
▁bính	-11.6181
▁~	-11.6185
she	-11.6193
▁nôn	-11.6203
kata	-11.6204
▁bridge	-11.6214
▁99	-11.6216
hyuk	-11.6218
▁10.000	-11.6221
stein	-11.6228
▁sant	-11.6228
▁manh	-11.6229
▁mẻ	-11.6232
▁rand	-11.6233
▁mãnh	-11.6234
▁tong	-11.6238
▁shima	-11.624
▁đả	-11.6244
ional	-11.6247
ữu	-11.625
▁*	-11.6251
▁phao	-11.626
▁sox	-11.6265
▁mitsu	-11.6267
▁175	-11.6272
▁warn	-11.6274
led	-11.6285
ault	-11.6309
phe	-11.6323
▁wars	-11.6357
mune	-11.6358
▁ros	-11.6361
▁bull	-11.6361
▁gram	-11.6365
▁mão	-11.6384
▁78	-11.6388
▁chè	-11.6395
▁most	-11.6411
6.000	-11.6412
▁chae	-11.6426
cest	-11.6448
▁mili	-11.6452
▁congo	-11.6459
▁ship	-11.6462
đá	-11.6462
ural	-11.6468
sley	-11.6478
▁eric	-11.6508
phop	-11.6509
date	-11.6524
sf	-11.6525
song	-11.6539
ical	-11.6544
cation	-11.6544
inae	-11.6551
▁91	-11.6555
fta	-11.657
lr	-11.6571
▁jon	-11.6599
dou	-11.6601
▁bờm	-11.6606
mond	-11.6611
▁1500	-11.6624
▁160	-11.6626
▁đê	-11.6626
poly	-11.6632
▁wu	-11.6642
▁mura	-11.6646
ware	-11.6664
nori	-11.6664
smic	-11.6665
cũ	-11.6685
~	-11.6689
singapore	-11.6691
lãnh	-11.6691
lịch	-11.6691
đảo	-11.6691
pháp	-11.6691
thời	-11.6691
park	-11.6692
pink	-11.6697
văn	-11.6698
▁360	-11.67
play	-11.6702
châu	-11.6709
saga	-11.6713
masa	-11.6715
▁db	-11.6722
ttle	-11.6724
erd	-11.6725
ẽ	-11.6725
trừ	-11.6727
▁pont	-11.6729
ĩ	-11.6735
kinh	-11.6737
maro	-11.6738
sét	-11.6743
nfer	-11.6743
▁bú	-11.6755
▁tor	-11.6759
ướp	-11.6767
▁motor	-11.6771
dwig	-11.6773
原	-11.6773
и	-11.6773
지	-11.6773
ittihad	-11.6773
ë	-11.6773
▁abbott	-11.6773
▁abdullah	-11.6773
▁ambelau	-11.6773
▁amoled	-11.6773
▁arrernte	-11.6773
▁asanuma	-11.6773
▁azerbaijan	-11.6773
▁belarus	-11.6773
▁elliot	-11.6773
▁freikorps	-11.6773
▁gabriel	-11.6773
▁lincoln	-11.6773
▁lürssen	-11.6773
▁lằn	-11.6773
▁manamperi	-11.6773
▁midlothian	-11.6773
▁mobile	-11.6773
▁museum	-11.6773
▁ngoặt	-11.6773
▁nhuộm	-11.6773
▁orchard	-11.6773
▁pakistan	-11.6773
▁phoenix	-11.6773
▁plugin	-11.6773
▁plutarch	-11.6773
▁rococo	-11.6773
▁rốt	-11.6773
▁sicilia	-11.6773
▁simeulue	-11.6773
▁smackdown	-11.6773
▁thằn	-11.6773
▁tomatoes	-11.6773
▁trinidad	-11.6773
▁yankees	-11.6773
▁yokosuka	-11.6773
sakuramachi	-11.6773
▁anderson	-11.6773
▁august	-11.6773
▁consumer	-11.6773
▁doukas	-11.6773
▁heizei	-11.6773
▁rouen	-11.6773
▁vựng	-11.6773
▁xổm	-11.6773
▁đùi	-11.6773
ン	-11.6773
軍	-11.6773
金	-11.6773
▁ultra	-11.6773
▁(2010)	-11.6773
ggatt	-11.6773
▁4–1	-11.6773
istress	-11.6773
shibui	-11.6773
colahan	-11.6773
▁http	-11.6773
▁aberdeenshire	-11.6773
▁4-0	-11.6773
▁morgan	-11.6773
▁patrick	-11.6773
▁kōken	-11.6773
▁ưng	-11.6774
▁êm	-11.6774
▁mutter	-11.6774
▁friedric	-11.6774
▁xbox	-11.6774
▁thầu	-11.6774
▁jimin	-11.6775
▁nhộn	-11.6775
▁toyota	-11.6775
fürst	-11.6775
nihon	-11.6776
▁gươm	-11.6776
▁chromataphores	-11.6776
▁abeno	-11.6776
▁sasaki	-11.6776
▁norman	-11.6776
▁forres	-11.6777
▁sojung	-11.6777
▁đắng	-11.6778
▁hop	-11.6778
▁volta	-11.6779
▁harry	-11.6779
/12/20	-11.678
▁beast	-11.6781
▁walker	-11.6782
▁dĩnh	-11.6783
▁cpu	-11.6784
▁vtv	-11.6784
▁60%	-11.6784
▁1893	-11.6786
▁springs	-11.6786
▁four	-11.6787
▁cdc	-11.6787
▁who	-11.6788
helleni	-11.6788
▁lề	-11.6788
▁nại	-11.6788
zane	-11.6789
▁real	-11.679
▁1898	-11.6791
▁koko	-11.6791
▁third	-11.6792
▁mtv	-11.6793
▁samar	-11.6795
▁book	-11.6796
▁are	-11.6796
▁hyung	-11.6798
reed	-11.6799
▁countdown	-11.6799
▁tee	-11.6799
▁rổ	-11.6802
oba	-11.6803
ryu	-11.6804
▁commander	-11.6804
▁baek	-11.6808
▁giày	-11.681
▁ghost	-11.6811
lles	-11.6814
▁phích	-11.6814
▁yeo	-11.6815
▁tâu	-11.6818
▁450	-11.6819
▁horikawa	-11.6823
▁dỗ	-11.6826
umber	-11.6826
▁lenin	-11.6832
▁sò	-11.6834
elle	-11.6835
▁hống	-11.6836
west	-11.6844
▁roy	-11.6851
▁dưa	-11.6856
▁dior	-11.6857
▁val	-11.686
▁liêng	-11.6861
▁stars	-11.6861
hậu	-11.6864
/2017	-11.6866
imana	-11.6867
▁eye	-11.6867
/2011	-11.6868
ote	-11.688
▁gầm	-11.688
lung	-11.6883
▁mama	-11.6885
”"	-11.6887
▁ingersoll	-11.6893
▁over	-11.6904
▁táo	-11.6912
wick	-11.6918
▁kuge	-11.692
tuy	-11.6926
▁best	-11.6933
▁rò	-11.6946
cotten	-11.695
▁phác	-11.6958
▁joel	-11.696
hét	-11.6966
▁main	-11.697
▁vược	-11.6973
▁nhá	-11.6978
▁toyo	-11.6979
wood	-11.699
gel	-11.6994
-85	-11.7009
▁83	-11.7011
audi	-11.7017
▁nav	-11.7021
hall	-11.7024
▁pom	-11.7036
▁simon	-11.7066
born	-11.7074
▁(168	-11.7078
▁chai	-11.709
xá	-11.7099
_6	-11.7113
▁sá	-11.7124
cape	-11.7125
▁hip	-11.7129
öll	-11.7143
tech	-11.7147
aso	-11.7151
▁clo	-11.7158
èm	-11.7159
▁ôm	-11.716
▁fae	-11.718
▁gìn	-11.719
each	-11.7198
gui	-11.7212
▁cối	-11.7212
▁xé	-11.7225
eria	-11.7233
night	-11.7236
tak	-11.724
unc	-11.7253
▁run	-11.727
lá	-11.7293
▁ub	-11.7297
▁trĩ	-11.7302
ayaka	-11.7306
▁ole	-11.7306
▁sing	-11.7309
you	-11.7313
▁bern	-11.7359
orge	-11.7372
▁phà	-11.7391
kameyama	-11.7403
murakami	-11.7404
tổng	-11.7406
rdic	-11.7407
tỉnh	-11.742
đen	-11.742
allus	-11.7427
nước	-11.7429
cket	-11.7431
sey	-11.7436
đến	-11.7439
atus	-11.7448
michi	-11.7449
350	-11.7462
▁quạ	-11.7474
etti	-11.7475
▁giã	-11.7478
▁warr	-11.7478
▁enzym	-11.748
format	-11.7482
▁blog	-11.7487
。	-11.7487
▁quỳ	-11.7487
日	-11.7487
▁glucose	-11.7487
enterprise	-11.7487
kintsugi	-11.7487
bboom	-11.7487
chiritopsis	-11.7487
jacques	-11.7487
saginaw	-11.7487
о	-11.7487
ا	-11.7487
▁2008–09	-11.7487
▁adidas	-11.7487
▁alexandre	-11.7487
▁atlanta	-11.7487
▁boomerang	-11.7487
▁caledonian	-11.7487
▁clement	-11.7487
▁cyborg	-11.7487
▁daikakuji	-11.7487
▁damascus	-11.7487
▁fatima	-11.7487
▁guadalcanal	-11.7487
▁gwanghwamun	-11.7487
▁gyeongbu	-11.7487
▁harvard	-11.7487
▁imagine	-11.7487
▁jacob	-11.7487
▁kabadin	-11.7487
▁khatlon	-11.7487
▁kodansha	-11.7487
▁koloale	-11.7487
▁leipzig	-11.7487
▁maximoff	-11.7487
▁mickey	-11.7487
▁moscow	-11.7487
▁nhức	-11.7487
▁nitrosamin	-11.7487
▁nuốt	-11.7487
▁phớt	-11.7487
▁poilanei	-11.7487
▁pyeonghwa	-11.7487
▁reptans	-11.7487
▁stonnington	-11.7487
▁sudamerican	-11.7487
▁surigao	-11.7487
▁toucan	-11.7487
▁tournament	-11.7487
橘	-11.7487
武	-11.7487
ī	-11.7487
▁allison	-11.7487
▁empire	-11.7487
▁ngạt	-11.7487
▁takakura	-11.7487
陵	-11.7487
▁(2005)	-11.7487
▁cartel	-11.7487
▁lụy	-11.7487
▁pseudo	-11.7487
▁(2009)	-11.7487
▁giếng	-11.7487
▁kihon	-11.7487
▁sói	-11.7487
▁badger	-11.7487
▁hunter	-11.7487
▁soccer	-11.7487
ス	-11.7487
▁rhein	-11.7487
▁vocal	-11.7487
▁hybrid	-11.7487
▁ronald	-11.7487
▁ishida	-11.7487
▁kanemori	-11.7487
▁ngạn	-11.7487
▁machine	-11.7487
▁helici	-11.7487
▁blogger	-11.7487
▁garcia	-11.7487
▁michigan	-11.7488
[1]	-11.7488
▁regio	-11.7488
▁flores	-11.7488
▁klang	-11.7488
▁miyabi	-11.7488
dolf	-11.7488
▁lăn	-11.7488
▁cuồng	-11.7488
▁franklin	-11.7488
elia	-11.7489
▁season	-11.7489
ür	-11.7489
rudy	-11.749
nathan	-11.749
▁delhi	-11.749
▁đống	-11.749
▁otomo	-11.749
▁brad	-11.7491
▁hóc	-11.7491
▁arena	-11.7491
▁kenya	-11.7491
▁tamako	-11.7492
▁léo	-11.7492
▁arsenal	-11.7492
▁reiner	-11.7493
▁viola	-11.7493
control	-11.7493
▁henri	-11.7493
▁ymir	-11.7493
▁negi	-11.7494
▁cvu	-11.7495
▁lậu	-11.7497
▁omar	-11.7497
▁nồi	-11.7497
▁1914	-11.7498
▁1831	-11.7498
ayam	-11.75
▁timex	-11.75
▁rầy	-11.7501
tony	-11.7503
▁gõ	-11.7506
▁also	-11.7507
▁iron	-11.751
▁nụ	-11.7511
▁30%	-11.7512
▁dreams	-11.7512
▁matt	-11.7513
▁bế	-11.7513
▁mác	-11.7518
▁kbs	-11.7519
▁"“	-11.7519
▁ngưu	-11.752
3-0	-11.752
▁măng	-11.752
▁aleut	-11.7522
▁bros	-11.7522
▁swan	-11.7523
llar	-11.7523
▁oku	-11.7524
▁edm	-11.7531
opsis	-11.7532
▁drod	-11.7534
▁force	-11.7535
▁left	-11.7537
slov	-11.7537
wah	-11.7538
▁bror	-11.7543
▁bob	-11.7545
▁nine	-11.7546
▁today	-11.7551
osé	-11.7552
▁otto	-11.7554
section	-11.7557
atum	-11.7559
▁gesneriaceae	-11.756
▁khiếp	-11.756
ượng	-11.7563
▁utc	-11.7564
tsugu	-11.7565
▁reizei	-11.7566
kuge	-11.7566
▁like	-11.7566
▁bọt	-11.7575
▁sên	-11.7575
boea	-11.7581
▁kane	-11.7581
▁__	-11.7585
▁soka	-11.7586
iếc	-11.7587
▁hisa	-11.7589
57,	-11.76
▁kor	-11.7613
▁hiên	-11.7615
sư	-11.7627
hội	-11.763
▁xôi	-11.7634
▁1.4	-11.7653
tonight	-11.7657
▁supers	-11.7659
▁ichi	-11.766
kada	-11.7678
cheer	-11.771
▁oe	-11.771
icul	-11.7716
show	-11.7725
ful	-11.7734
5–2	-11.7736
heroes	-11.7741
▁cheng	-11.7754
access	-11.7757
▁36"	-11.7767
kaman	-11.7776
mizu	-11.7784
illon	-11.7786
piri	-11.7797
▁69	-11.7801
▁stone	-11.7802
kiss	-11.7805
cell	-11.7806
anger	-11.7807
▁ford	-11.7819
▁jae	-11.7823
950	-11.7827
sō	-11.7828
▁jp	-11.7848
mile	-11.7855
▁tana	-11.7884
▁vần	-11.7905
▁vó	-11.791
inner	-11.7924
face	-11.794
▁3,7	-11.7957
eck	-11.7967
▁olive	-11.7983
▁faisal	-11.8005
▁lei	-11.8013
2,7	-11.8025
▁yun	-11.805
core	-11.8054
azur	-11.8061
rf	-11.8103
ré	-11.8106
late	-11.8107
▁pau	-11.8112
arson	-11.8141
▁gay	-11.8152
chú	-11.8159
shot	-11.8162
▁hye	-11.817
0,000	-11.8171
marcus	-11.8171
reizei	-11.8172
lady	-11.8174
đức	-11.8175
sách	-11.8175
của	-11.8175
quả	-11.8175
hòa	-11.8176
loài	-11.8177
-22	-11.8177
nghiên	-11.8178
thể	-11.818
đường	-11.8181
tori	-11.8185
thuộc	-11.8185
tư	-11.8196
▁136	-11.8204
xã	-11.8205
2012	-11.8205
sáng	-11.8208
mái	-11.8219
▁command	-11.822
▁alawi	-11.8225
▁chù	-11.823
diễn	-11.8236
▁daniel	-11.8238
ise	-11.824
▁tò	-11.8241
▁melani	-11.825
▁nhô	-11.8251
古	-11.8256
▁observ	-11.8256
尔	-11.8256
光	-11.8256
▁mercedes	-11.8256
德	-11.8256
神	-11.8256
fukakusa	-11.8256
geometridae	-11.8256
inkigayo	-11.8256
localhost	-11.8256
megapixel	-11.8256
muharraq	-11.8256
panzerfaust	-11.8256
¥	-11.8256
▁2006–07	-11.8256
▁2016–17	-11.8256
▁advance	-11.8256
▁alienware	-11.8256
▁attack	-11.8256
▁boraginaceae	-11.8256
▁bronson	-11.8256
▁calhoun	-11.8256
▁chòe	-11.8256
▁chūō	-11.8256
▁daewoo	-11.8256
▁daimyo	-11.8256
▁dekalb	-11.8256
▁digital	-11.8256
▁dülmen	-11.8256
▁erwin	-11.8256
▁galliard	-11.8256
▁hudson	-11.8256
▁kosovo	-11.8256
▁matisse	-11.8256
▁mechanics	-11.8256
▁mercury	-11.8256
▁monomethyl	-11.8256
▁montoku	-11.8256
▁pantera	-11.8256
▁pegasus	-11.8256
▁reinhard	-11.8256
▁sicily	-11.8256
▁system	-11.8256
▁tajikistan	-11.8256
▁wilhelm	-11.8256
▁xòe	-11.8256
▁yamaguchi	-11.8256
optera	-11.8256
▁fritz	-11.8256
▁giềng	-11.8256
▁magazine	-11.8256
▁miguel	-11.8256
▁source	-11.8256
▁texas	-11.8256
門	-11.8256
▁antoku	-11.8256
▁bavaria	-11.8256
▁bruno	-11.8256
▁dallas	-11.8256
▁midland	-11.8256
妃	-11.8256
家	-11.8256
portunus	-11.8256
▁mutant	-11.8256
永	-11.8256
concept	-11.8256
惠	-11.8256
needed	-11.8256
恭	-11.8256
trygo	-11.8256
▁mekong	-11.8256
limited	-11.8256
▁clip	-11.8256
▁capita	-11.8256
▁kiyomori	-11.8256
▁honshū	-11.8256
▁broadway	-11.8256
worth	-11.8257
▁mbk	-11.8257
▁astm	-11.8257
▁grammy	-11.8257
▁hợi	-11.8257
▁victoria	-11.8257
▁works	-11.8257
▁xuôi	-11.8257
▁lờ	-11.8257
▁taxi	-11.8257
▁1-3	-11.8258
▁maroc	-11.8258
▁jitō	-11.8258
▁monmu	-11.8258
wadō	-11.8258
▁store	-11.8258
▁chồi	-11.8258
▁jeff	-11.8258
▁fiti	-11.8259
▁online	-11.8259
▁exid	-11.8259
▁loãng	-11.8259
▁tobago	-11.8259
▁woman	-11.826
▁proton	-11.826
▁ebert	-11.8261
iberia	-11.8261
▁lí	-11.8262
▁pgs	-11.8262
▁ueno	-11.8262
▁takashi	-11.8263
▁dầy	-11.8263
▁mĩ	-11.8264
ulagi	-11.8264
▁truk	-11.8264
▁cước	-11.8265
▁1909	-11.8265
▁water	-11.8265
▁metacritic	-11.8267
▁chài	-11.8268
▁thầm	-11.827
▁mân	-11.827
▁hởi	-11.8271
▁búa	-11.8272
▁tăm	-11.8272
▁kilo	-11.8273
–70	-11.8273
▁1867	-11.8274
▁sound	-11.8274
▁1827	-11.8276
▁sỉ	-11.8277
attu	-11.8278
▁lyon	-11.8279
▁(179	-11.828
manuel	-11.828
▁dragon	-11.828
▁stellatus	-11.828
▁dẻo	-11.828
▁erik	-11.8283
▁naver	-11.8286
▁mrt	-11.8286
▁niken	-11.8286
▁villa	-11.8287
▁court	-11.8288
oides	-11.8291
bullard	-11.8292
ttak	-11.8293
▁húy	-11.8294
eky	-11.8296
▁films	-11.8302
▁touch	-11.8304
▁dean	-11.8306
▁hange	-11.8306
▁bói	-11.8307
▁chấu	-11.8308
▁3,5	-11.8309
aemon	-11.8311
mline	-11.8318
▁arts	-11.8328
stone	-11.8345
▁ix	-11.8348
bashi	-11.835
▁count	-11.8357
▁malaya	-11.8361
tih	-11.8369
hẻo	-11.8371
shino	-11.8371
▁4.000	-11.8376
▁vision	-11.8384
0,3	-11.8384
▁nord	-11.8404
▁grande	-11.8414
▁hoán	-11.842
▁5.000	-11.8425
maka	-11.8429
▁marco	-11.8438
table	-11.844
▁stm	-11.8453
kei	-11.8458
▁kìm	-11.8463
rul	-11.8472
▁rông	-11.8475
661	-11.8485
▁kennet	-11.8491
rty	-11.8501
kill	-11.8509
▁hein	-11.8511
▁trau	-11.8531
some	-11.8537
lô	-11.8538
▁hoả	-11.8543
▁(50	-11.855
musc	-11.8555
voice	-11.8558
▁kek	-11.8568
comp	-11.8568
▁khói	-11.8571
▁yan	-11.8584
zero	-11.8615
7.000	-11.8622
▁%	-11.8633
hiến	-11.8639
▁(166	-11.866
hime	-11.8661
gục	-11.8664
900	-11.8667
lex	-11.8673
uyên	-11.8704
odes	-11.8721
feld	-11.8728
▁nova	-11.8752
/15	-11.8752
utc	-11.8755
ptic	-11.8759
thị	-11.8761
▁net	-11.8765
▁more	-11.8804
wei	-11.8818
3,8	-11.8823
▁00	-11.8842
down	-11.8843
uge	-11.8865
centr	-11.8881
▁asa	-11.8881
eight	-11.8941
▁jane	-11.8994
ridae	-11.8997
gesneriaceae	-11.9005
hanazono	-11.9006
yōzei	-11.9006
sanjō	-11.9007
karuta	-11.9007
flower	-11.9008
dấu	-11.9008
lời	-11.9008
thống	-11.9008
truyền	-11.9008
mùa	-11.9008
tại	-11.9008
quyền	-11.9008
group	-11.9009
trên	-11.9009
triều	-11.9009
phía	-11.9009
thiền	-11.901
▁mart	-11.9011
moana	-11.9015
vòng	-11.9021
▁mich	-11.9024
kyung	-11.9029
cánh	-11.9037
dù	-11.9041
game	-11.9043
nô	-11.9054
▁(173	-11.9058
copa	-11.9063
rman	-11.9066
▁ace	-11.9068
▁electro	-11.9072
_5	-11.9074
▁see	-11.908
女	-11.9085
▁wonder	-11.9087
、	-11.9089
rêpôk	-11.9089
▁broad	-11.9089
ẵ	-11.909
府	-11.909
清	-11.909
α	-11.909
ッ	-11.909
‘	-11.909
▁reichs	-11.909
▁return	-11.909
穆	-11.909
長	-11.909
associate	-11.909
deinostigma	-11.909
object	-11.909
ommaney	-11.909
selfie	-11.909
ž	-11.909
▁1998–99	-11.909
▁airlines	-11.909
▁airways	-11.909
▁arzawa	-11.909
▁audrey	-11.909
▁bamboo	-11.909
▁bertholdt	-11.909
▁burushaski	-11.909
▁catalina	-11.909
▁cruiserweight	-11.909
▁daejeon	-11.909
▁darrell	-11.909
▁deoksugung	-11.909
▁elatine	-11.909
▁esperance	-11.909
▁fantagio	-11.909
▁france	-11.909
▁freguesia	-11.909
▁gyges	-11.909
▁hebrew	-11.909
▁herzegovina	-11.909
▁ioannes	-11.909
▁isaipriya	-11.909
▁jaguar	-11.909
▁julià	-11.909
▁juntoku	-11.909
▁keßler	-11.909
▁lockheed	-11.909
▁mahmud	-11.909
▁nakajima	-11.909
▁nhấm	-11.909
▁oblast	-11.909
▁okushiri	-11.909
▁peacock	-11.909
▁playstation	-11.909
▁premawathi	-11.909
▁ramblers	-11.909
▁ryūkyū	-11.909
▁seeadler	-11.909
▁shikken	-11.909
▁takuvaine	-11.909
▁tokusatsu	-11.909
▁ukraine	-11.909
▁vaccine	-11.909
敦	-11.909
泰	-11.909
皇太后	-11.909
貞	-11.909
▁cườm	-11.909
▁filho	-11.909
▁gupta	-11.909
▁kingdom	-11.909
▁lepea	-11.909
▁lucky	-11.909
▁monaco	-11.909
▁nếp	-11.909
▁oxide	-11.909
御	-11.909
白	-11.909
雅	-11.909
▁trơn	-11.909
▁dệt	-11.909
▁elgin	-11.909
イ	-11.909
uccle	-11.909
▁novel	-11.909
▁summer	-11.909
bearss	-11.909
ル	-11.909
▁gạt	-11.909
avispa	-11.909
▁shikibu	-11.909
closer	-11.909
▁4–2	-11.909
▁butcher	-11.909
▁nagasaki	-11.909
▁room	-11.909
▁justice	-11.909
▁meishō	-11.909
▁nakayoshi	-11.909
▁valley	-11.909
▁garuda	-11.909
▁ktx	-11.909
▁ashley	-11.909
▁kaneie	-11.909
▁women	-11.9091
▁kenny	-11.9091
▁wilson	-11.9091
▁cambridge	-11.9091
▁4/5	-11.9092
scope	-11.9092
▁xiếc	-11.9092
▁idol	-11.9092
▁faros	-11.9092
▁wayne	-11.9092
▁portland	-11.9092
▁giọt	-11.9092
kotoba	-11.9093
▁harris	-11.9093
▁break	-11.9093
▁14,2	-11.9094
▁nhở	-11.9094
noble	-11.9094
▁bloch	-11.9095
▁metro	-11.9096
▁mutsu	-11.9096
?”	-11.9097
▁cube	-11.9097
▁nướng	-11.9097
▁drive	-11.9097
ndon	-11.9098
▁gotham	-11.9099
▁vồng	-11.91
▁vọt	-11.91
▁xiv	-11.91
text	-11.91
ajime	-11.91
▁gò	-11.9101
▁trêu	-11.9101
▁gầy	-11.9101
▁xơ	-11.9102
▁battle	-11.9103
▁trác	-11.9103
▁mắng	-11.9104
▁sướng	-11.9105
▁búi	-11.9105
▁roll	-11.9105
▁cọc	-11.9106
▁nhái	-11.9106
friend	-11.9107
▁musical	-11.9108
▁development	-11.9108
▁douglas	-11.9108
▁μ	-11.9108
▁sọ	-11.9109
▁amri	-11.9109
▁daniels	-11.911
▁1895	-11.911
eiji	-11.9112
▁plei	-11.9113
▁trailer	-11.9115
▁enisei	-11.9116
▁hongo	-11.9118
▁băm	-11.9118
▁1868	-11.9121
▁stop	-11.9122
yen	-11.9122
▁kẽm	-11.9122
▁phồn	-11.9125
best	-11.9126
ody	-11.9126
▁3-4	-11.9126
▁katsu	-11.9128
▁bismarck	-11.9131
▁square	-11.9131
parent	-11.9135
▁atp	-11.9135
▁kōmyō	-11.9138
▁850	-11.9139
▁aff	-11.9141
▁dại	-11.9142
▁1200	-11.9143
▁kola	-11.9144
▁pierre	-11.9145
▁duke	-11.9148
–18	-11.9152
▁kimchi	-11.9152
▁tsuchimikado	-11.9153
▁bee	-11.9156
▁masu	-11.9157
▁50.000	-11.9158
stay	-11.9158
▁stalin	-11.9161
put	-11.9161
▁bóc	-11.9166
stry	-11.9176
little	-11.9183
▁lind	-11.9183
68,	-11.9187
▁romer	-11.9196
▁lách	-11.92
rote	-11.9203
▁fire	-11.9206
phụ	-11.9211
▁(169	-11.9226
▁tỏi	-11.9243
▁1989)	-11.9246
▁170	-11.9251
-78	-11.9256
▁marcus	-11.9261
▁khoảnh	-11.9268
phan	-11.927
mbia	-11.9277
shūi	-11.9279
viên	-11.9282
▁cast	-11.9284
iếu	-11.9285
▁leone	-11.9289
đó	-11.9298
▁corp	-11.93
▁now	-11.9306
▁uji	-11.9322
kids	-11.9333
phú	-11.9337
▁mitsuo	-11.9342
sitk	-11.9353
▁(172	-11.9353
▁carlo	-11.9368
rack	-11.9377
▁huber	-11.9382
ỉnh	-11.9382
stand	-11.9405
ppi	-11.9406
igue	-11.9508
leo	-11.951
tô	-11.9523
▁1,8	-11.9526
arro	-11.9538
▁monte	-11.9547
hoàn	-11.9573
▁hell	-11.9588
ghi	-11.9599
true	-11.9604
▁ross	-11.9613
▁sue	-11.9628
mont	-11.9636
▁900	-11.9674
▁105	-11.9697
▁1991)	-11.9701
▁kurt	-11.9741
abab	-11.9776
▁giàn	-11.9777
▁kore	-11.9803
5.6	-11.9804
laren	-11.9819
chèn	-11.9849
-89	-11.9857
ör	-11.9862
150	-11.9868
evo	-11.9871
tôn	-11.9874
music	-11.9897
east	-11.9897
▁chẻ	-11.9898
kst	-11.9916
american	-11.9916
charles	-11.9916
linux	-11.9916
phản	-11.9917
sức	-11.9917
địa	-11.9917
loại	-11.9917
▁arn	-11.9917
quá	-11.9917
weber	-11.9919
viện	-11.992
apple	-11.992
sik	-11.992
anime	-11.9921
nhị	-11.9922
kỳ	-11.9923
vịt	-11.9924
like	-11.9935
kyu	-11.9937
lương	-11.9943
soo	-11.9945
nơi	-11.995
gold	-11.9955
▁mạ	-11.9955
▁chà	-11.9965
▁(175	-11.9966
city	-11.9967
▁2.0	-11.9972
▁nhữ	-11.9975
đan	-11.9979
bảng	-11.998
▁abs	-11.9981
▁đè	-11.9988
rasil	-11.999
box	-11.9992
▁đắn	-11.9992
cái	-11.9998
朝	-11.9999
リ	-11.9999
主	-11.9999
あ	-11.9999
多	-11.9999
▁sukiya	-11.9999
木	-11.9999
野	-11.9999
torifuda	-11.9999
ð	-11.9999
▁connecticut	-11.9999
▁edition	-11.9999
▁vặt	-11.9999
伊	-11.9999
条	-11.9999
殿	-11.9999
田	-11.9999
beautiful	-11.9999
bougainville	-11.9999
caloenas	-11.9999
iniistius	-11.9999
salamaua	-11.9999
sargent	-11.9999
tavriya	-11.9999
ν	-11.9999
€	-11.9999
▁arsenolit	-11.9999
▁azkaban	-11.9999
▁barkley	-11.9999
▁bermuda	-11.9999
▁botaneiates	-11.9999
▁brooklyn	-11.9999
▁civil	-11.9999
▁college	-11.9999
▁comeback	-11.9999
▁council	-11.9999
▁culture	-11.9999
▁dahomey	-11.9999
▁dặn	-11.9999
▁earth	-11.9999
▁ecolabel	-11.9999
▁endymion	-11.9999
▁feejee	-11.9999
▁felix	-11.9999
▁funimation	-11.9999
▁jizzakh	-11.9999
▁juventus	-11.9999
▁kirundi	-11.9999
▁maharishi	-11.9999
▁maluku	-11.9999
▁management	-11.9999
▁masterchef	-11.9999
▁matthew	-11.9999
▁mindanao	-11.9999
▁nicholas	-11.9999
▁norwich	-11.9999
▁perform	-11.9999
▁polaris	-11.9999
▁profess	-11.9999
▁rainbow	-11.9999
▁rajskub	-11.9999
▁revolution	-11.9999
▁rhyl	-11.9999
▁rikyū	-11.9999
▁rohtang	-11.9999
▁sukarno	-11.9999
▁sydney	-11.9999
▁tiffany	-11.9999
▁uchchaihshravas	-11.9999
▁vickers	-11.9999
▁warriors	-11.9999
▁yokohama	-11.9999
事	-11.9999
佐	-11.9999
▁alfred	-11.9999
▁fisher	-11.9999
▁hanggai	-11.9999
▁hinode	-11.9999
▁lisbon	-11.9999
▁smart	-11.9999
▁tamazight	-11.9999
▁turner	-11.9999
▁christophe	-11.9999
▁ernest	-11.9999
▁kazumi	-11.9999
☆	-11.9999
▁canyon	-11.9999
▁cooper	-11.9999
▁gothic	-11.9999
▁ernst	-11.9999
▁kotor	-11.9999
▁lãi	-11.9999
▁rapstar	-11.9999
▁bolsa	-11.9999
▁italia	-11.9999
▁tacoma	-11.9999
▁vincen	-11.9999
▁locke	-11.9999
▁might	-11.9999
▁vladi	-11.9999
▁motherwell	-11.9999
▁nakamikado	-11.9999
▁nishimiya	-11.9999
▁ashiya	-11.9999
▁ghề	-11.9999
bennion	-11.9999
▁classic	-11.9999
▁rajah	-11.9999
▁rosberg	-11.9999
▁nikola	-11.9999
仁皇后	-11.9999
▁centre	-11.9999
conmebol	-11.9999
▁western	-12
▁ohiki	-12
▁chloroflexi	-12
storia	-12
▁phèn	-12
▁powell	-12
▁hoover	-12.0001
hênh	-12.0001
▁sukō	-12.0001
▁golden	-12.0002
plicit	-12.0002
▁miyako	-12.0003
▁bennett	-12.0003
▁ngoan	-12.0003
▁photo	-12.0003
▁sagami	-12.0003
▁leary	-12.0004
▁deutsche	-12.0004
▁cathay	-12.0004
▁đúp	-12.0004
/2007	-12.0004
▁nghiện	-12.0005
▁hở	-12.0005
▁willie	-12.0005
▁hodong	-12.0005
▁lead	-12.0005
▁suez	-12.0006
▁hugo	-12.0006
▁spring	-12.0006
▁ipv	-12.0006
ệch	-12.0006
▁lén	-12.0007
▁amur	-12.0007
eyori	-12.0007
▁bả	-12.0008
▁1901	-12.0008
small	-12.0009
urban	-12.001
▁aoki	-12.001
▁alice	-12.0011
▁satan	-12.0011
_33	-12.0012
▁sid	-12.0012
▁arch	-12.0012
▁jake	-12.0012
▁xíu	-12.0015
▁amman	-12.0015
▁keio	-12.0017
▁puer	-12.0017
▁rỗng	-12.0018
earl	-12.0018
▁gwang	-12.0018
zzo	-12.002
▁nạc	-12.002
▁gpu	-12.002
▁chắp	-12.0021
vogue	-12.0021
▁pcr	-12.0021
▁somin	-12.0022
otto	-12.0022
▁bruc	-12.0022
▁nhát	-12.0024
▁miss	-12.0025
▁global	-12.0027
▁westfalen	-12.0027
▁café	-12.0027
▁lít	-12.0027
phyl	-12.0027
▁1850	-12.0028
tcp	-12.0028
▁1887	-12.0028
▁yap	-12.0032
▁wel	-12.0034
▁(170	-12.0041
▁nts	-12.0046
▁kí	-12.0046
▁ryan	-12.0047
▁rủi	-12.0047
▁nành	-12.0053
▁aden	-12.0055
▁doyeon	-12.0056
hư	-12.0058
▁track	-12.0059
vsk	-12.006
30.000	-12.0062
▁calci	-12.0067
▁viii	-12.0069
▁hana	-12.007
▁lina	-12.0075
▁quí	-12.0076
thong	-12.0085
ender	-12.0087
▁def	-12.0092
▁jaso	-12.0093
work	-12.0096
▁2,3	-12.0099
inamo	-12.01
benz	-12.0102
kanji	-12.011
▁palm	-12.0112
mikado	-12.0113
▁ned	-12.0141
??	-12.0143
rene	-12.016
print	-12.019
▁1.5	-12.0209
▁toả	-12.0212
▁aida	-12.0243
tsuna	-12.0285
▁phì	-12.0291
lif	-12.0324
shaw	-12.0328
leste	-12.0331
opp	-12.0335
cheon	-12.0344
tone	-12.0344
4,5	-12.0357
peria	-12.0384
▁koch	-12.0405
▁anton	-12.041
▁jing	-12.0415
▁mó	-12.0419
▁nano	-12.0436
▁nọ	-12.0441
ois	-12.0449
ures	-12.0459
heon	-12.0462
▁suga	-12.0482
span	-12.0485
were	-12.0493
▁marc	-12.0493
sue	-12.0495
life	-12.0533
alis	-12.0535
ān	-12.055
mbat	-12.0579
hide	-12.0579
▁stea	-12.0587
▁sí	-12.0604
lupe	-12.0606
▁antoni	-12.0629
duct	-12.0664
2–2	-12.0672
1999	-12.0681
mask	-12.069
fair	-12.0699
hello	-12.0729
▁2.5	-12.0733
arrow	-12.0737
cú	-12.0741
3.000	-12.0761
▁bryan	-12.0765
tones	-12.0774
▁leve	-12.0825
etsu	-12.0842
250	-12.0858
▁mode	-12.0868
▁shou	-12.0875
▁bella	-12.0904
ohara	-12.0911
exp	-12.0913
thủ	-12.0913
admiralty	-12.0915
poppy	-12.0916
malaysia	-12.0917
tiểu	-12.0917
video	-12.0917
biển	-12.0917
đơn	-12.0917
lúc	-12.0917
trận	-12.0917
bảo	-12.0917
việc	-12.0917
xuất	-12.0918
kinnari	-12.0918
dream	-12.0918
today	-12.0919
type	-12.0922
▁mị	-12.0926
báo	-12.093
beat	-12.0939
ogo	-12.0953
▁pug	-12.0956
ữ	-12.0956
▁hua	-12.0971
thay	-12.0972
▁spri	-12.0975
ược	-12.0975
▁phò	-12.0976
▁nhũ	-12.0979
▁spartan	-12.0981
tinh	-12.0986
vào	-12.0987
▁walk	-12.0988
▁rộn	-12.0992
皇	-12.0998
集	-12.0998
▁pete	-12.0998
所	-12.0999
ː	-12.0999
λ	-12.0999
\	-12.0999
ト	-12.0999
ラ	-12.0999
奇	-12.0999
宗	-12.0999
法	-12.0999
道	-12.0999
bẹt	-12.0999
einsatz	-12.0999
kashiwabara	-12.0999
matanikau	-12.0999
с	-12.0999
▁2005–06	-12.0999
▁abdul	-12.0999
▁academy	-12.0999
▁alabama	-12.0999
▁albazin	-12.0999
▁australorp	-12.0999
▁baldwin	-12.0999
▁bangladesh	-12.0999
▁boraginales	-12.0999
▁brunei	-12.0999
▁bẩy	-12.0999
▁captain	-12.0999
▁clarionensis	-12.0999
▁colombo	-12.0999
▁descent	-12.0999
▁dioxide	-12.0999
▁dumbarton	-12.0999
▁frederic	-12.0999
▁guốc	-12.0999
▁halbwachs	-12.0999
▁hamilton	-12.0999
▁hereford	-12.0999
▁hideyoshi	-12.0999
▁holocaust	-12.0999
▁imerina	-12.0999
▁iroquois	-12.0999
▁kavkaz	-12.0999
▁kilmarnock	-12.0999
▁kolkata	-12.0999
▁landrace	-12.0999
▁lebkuchen	-12.0999
▁liberty	-12.0999
▁melanopus	-12.0999
▁melayu	-12.0999
▁miranda	-12.0999
▁mirror	-12.0999
▁moskva	-12.0999
▁nakrang	-12.0999
▁ngửa	-12.0999
▁ninmyō	-12.0999
▁oblak	-12.0999
▁paraguay	-12.0999
▁picasso	-12.0999
▁pirarucu	-12.0999
▁pisistratus	-12.0999
▁prahran	-12.0999
▁pygmy	-12.0999
▁quặng	-12.0999
▁rihanna	-12.0999
▁rokujō	-12.0999
▁rutherford	-12.0999
▁salvatore	-12.0999
▁satsumadori	-12.0999
▁solutions	-12.0999
▁southampton	-12.0999
▁squash	-12.0999
▁stephanie	-12.0999
▁steppenwolf	-12.0999
▁supervillain	-12.0999
▁sậm	-12.0999
▁tadjoura	-12.0999
▁tennent	-12.0999
▁terminal	-12.0999
▁tsukino	-12.0999
▁vector	-12.0999
▁venezuela	-12.0999
▁yamazaki	-12.0999
▁đậy	-12.0999
掌	-12.0999
書	-12.0999
사	-12.0999
karpaty	-12.0999
phosphat	-12.0999
stigma	-12.0999
ρ	-12.0999
т	-12.0999
▁clyde	-12.0999
▁conception	-12.0999
▁estonia	-12.0999
▁giòn	-12.0999
▁madras	-12.0999
▁mirren	-12.0999
▁munich	-12.0999
▁nacional	-12.0999
▁science	-12.0999
▁soviet	-12.0999
▁toronto	-12.0999
▁trọc	-12.0999
▁tōhei	-12.0999
聚	-12.0999
weekly	-12.0999
▁batista	-12.0999
▁davies	-12.0999
▁sierra	-12.0999
▁spiking	-12.0999
▁takumi	-12.0999
▁togashi	-12.0999
▁globe	-12.0999
▁hụt	-12.0999
▁kimmich	-12.0999
▁stylo	-12.0999
一	-12.0999
▁midori	-12.0999
▁donovan	-12.0999
▁kazan	-12.0999
▁sỏi	-12.0999
グ	-12.0999
▁tarawa	-12.0999
▁asuka	-12.0999
▁kyrgyzstan	-12.0999
▁living	-12.0999
▁knock	-12.0999
▁ishak	-12.0999
▁(1998)	-12.0999
▁(2019)	-12.0999
cepea	-12.0999
holstein	-12.0999
▁concert	-12.0999
▁rơm	-12.0999
▁motorola	-12.0999
▁octo	-12.0999
▁marcopolo	-12.0999
▁mirai	-12.0999
▁kyushu	-12.0999
▁yoshifusa	-12.0999
▁shōkō	-12.0999
▁lions	-12.0999
▁ghz	-12.0999
▁goldstar	-12.0999
wight	-12.0999
▁crisis	-12.0999
▁kōbun	-12.0999
▁pepsico	-12.0999
▁modern	-12.0999
▁ltte	-12.0999
▁pietro	-12.0999
▁chihaya	-12.0999
▁dogma	-12.0999
▁ngươi	-12.1
▁andrea	-12.1
draco	-12.1
▁kitano	-12.1
▁colors	-12.1
▁(2007)	-12.1
▁suzuki	-12.1
▁nhuyễn	-12.1
cbn	-12.1001
▁howard	-12.1001
▁lướt	-12.1001
▁greenland	-12.1001
▁winner	-12.1001
▁(2002	-12.1001
meyer	-12.1002
▁thừng	-12.1002
▁chạch	-12.1002
▁trèo	-12.1003
▁sunni	-12.1003
▁tiger	-12.1003
▁sakata	-12.1003
▁cliff	-12.1003
▁asano	-12.1003
▁ilchi	-12.1004
▁1902	-12.1004
▁newtown	-12.1005
-50	-12.1005
▁krai	-12.1005
▁1.200	-12.1005
▁turk	-12.1005
▁blasters	-12.1006
▁rtm	-12.1006
▁horn	-12.1006
▁sarah	-12.1008
▁suzu	-12.1009
ntium	-12.1009
rackets	-12.1009
▁mother	-12.101
▁uyển	-12.101
▁hold	-12.101
▁yoshida	-12.101
▁joan	-12.1011
▁channa	-12.1011
2007	-12.1012
ombay	-12.1013
▁body	-12.1013
▁rover	-12.1013
▁chém	-12.1013
▁oyama	-12.1013
mission	-12.1014
▁2015-16	-12.1014
▁know	-12.1017
▁nagao	-12.1017
▁1889	-12.1018
▁thồ	-12.1018
▁1892	-12.1018
▁thêu	-12.1018
▁500.000	-12.1019
▁yori	-12.102
▁ieyas	-12.1021
▁kén	-12.1021
▁1915	-12.1022
▁tưới	-12.1023
▁40%	-12.1023
▁quạt	-12.1024
▁grum	-12.1024
▁giãn	-12.1024
▁xiêm	-12.1025
mlb	-12.1026
▁mibu	-12.1028
▁ivan	-12.1028
▁(178	-12.1031
▁thau	-12.1031
wook	-12.1032
▁oil	-12.1032
▁lở	-12.1034
▁gờ	-12.1036
microchirita	-12.1037
▁3.7	-12.1037
daijin	-12.1041
▁giấm	-12.1043
▁banks	-12.1043
▁audit	-12.1045
▁pyr	-12.1045
▁nã	-12.1046
▁phồng	-12.1049
▁oan	-12.105
▁five	-12.1051
▁bương	-12.1052
▁oman	-12.1054
▁grey	-12.1057
▁tip	-12.1057
▁officer	-12.1058
▁tê	-12.1058
▁lake	-12.1058
▁fine	-12.1063
▁xẻ	-12.1063
▁taika	-12.1066
scale	-12.1067
▁sever	-12.1071
▁672	-12.1072
ency	-12.1073
polis	-12.108
unning	-12.1087
+2	-12.1102
▁kmar	-12.111
▁hf	-12.1112
▁8.1	-12.112
ince	-12.1146
▁abba	-12.1154
kokin	-12.116
ảnh	-12.1167
1988)	-12.1176
munda	-12.1177
tommy	-12.119
rasad	-12.1204
demo	-12.1208
▁phô	-12.1221
issim	-12.1237
▁neu	-12.1239
quin	-12.1256
▁acr	-12.1258
uỳ	-12.127
bury	-12.1279
ebru	-12.1286
▁xú	-12.1314
khó	-12.1318
soft	-12.1325
▁shoko	-12.1337
700	-12.1342
utus	-12.137
eign	-12.139
tice	-12.1414
ình	-12.1417
lovin	-12.145
ề	-12.1463
drop	-12.1466
garet	-12.1471
hỗ	-12.1473
▁vầ	-12.15
iêng	-12.1507
▁4-5	-12.1511
alone	-12.1519
wich	-12.1548
▁breme	-12.1583
▁(177	-12.1584
ahh	-12.159
enko	-12.1593
seon	-12.1607
1,6	-12.1617
▁johnston	-12.1643
rập	-12.1645
▁muôn	-12.1652
uichi	-12.1653
méo	-12.1692
theti	-12.1722
8,8	-12.1726
quer	-12.1727
arry	-12.1847
▁(176	-12.1864
945	-12.1939
▁takao	-12.1945
00.000	-12.1954
▁xvi	-12.1995
fusa	-12.2015
tsuchimikado	-12.2025
horikawa	-12.2025
avengers	-12.2027
international	-12.2027
national	-12.2028
vốn	-12.2028
quận	-12.2028
tốc	-12.2028
2,6	-12.2028
bạch	-12.2028
chưa	-12.2028
dưới	-12.2028
richard	-12.2029
magic	-12.203
đổi	-12.203
đỏ	-12.2032
phương	-12.2032
đánh	-12.2032
chuyên	-12.2032
model	-12.2032
house	-12.2032
azar	-12.2034
chiếm	-12.2036
thú	-12.2038
wanda	-12.2039
thám	-12.2041
dài	-12.2043
hood	-12.2043
yoon	-12.2043
kể	-12.2046
ulus	-12.2046
cải	-12.2059
thật	-12.2059
lần	-12.206
▁thoả	-12.2073
sina	-12.2078
eul	-12.2082
muk	-12.2084
comela	-12.2087
ridge	-12.2095
▁olympi	-12.2098
▁stal	-12.2101
▁chốn	-12.2103
▁hủ	-12.2107
р	-12.211
い	-12.211
懿	-12.211
端	-12.211
м	-12.211
康	-12.211
誠	-12.211
tributor	-12.211
ل	-12.211
徳	-12.211
慶	-12.211
都	-12.211
н	-12.211
世	-12.211
و	-12.211
▁fraser	-12.211
ク	-12.211
後	-12.211
express	-12.211
hemiboeopsis	-12.211
▁buồm	-12.211
▁pradesh	-12.211
「	-12.211
ウ	-12.211
布	-12.211
治	-12.211
aztec	-12.211
centropyge	-12.211
cyclop	-12.211
escaldes	-12.211
gruppen	-12.211
krishna	-12.211
rupicapra	-12.211
tenpyō	-12.211
východ	-12.211
̇	-12.211
▁abraham	-12.211
▁ahmad	-12.211
▁apokolips	-12.211
▁berhad	-12.211
▁brachy	-12.211
▁bướu	-12.211
▁chelmno	-12.211
▁chulalongkorn	-12.211
▁collection	-12.211
▁economic	-12.211
▁electric	-12.211
▁erythrit	-12.211
▁fayzabad	-12.211
▁georgia	-12.211
▁hispano	-12.211
▁hokkaido	-12.211
▁huihyeon	-12.211
▁isaakios	-12.211
▁istanbul	-12.211
▁jamaica	-12.211
▁jerusalem	-12.211
▁kentucky	-12.211
▁khalifa	-12.211
▁khamenei	-12.211
▁khomeini	-12.211
▁kusakabe	-12.211
▁legendary	-12.211
▁liberal	-12.211
▁lusitanos	-12.211
▁lười	-12.211
▁lẫy	-12.211
▁lận	-12.211
▁memory	-12.211
▁merthyr	-12.211
▁michelin	-12.211
▁mindoro	-12.211
▁mullins	-12.211
▁nehru	-12.211
▁neptune	-12.211
▁olmec	-12.211
▁organization	-12.211
▁oriental	-12.211
▁oxcart	-12.211
▁pacific	-12.211
▁piaractus	-12.211
▁principat	-12.211
▁puretty	-12.211
▁qala	-12.211
▁quoridor	-12.211
▁rajevac	-12.211
▁rốn	-12.211
▁salvador	-12.211
▁seljuq	-12.211
▁senecio	-12.211
▁shimbun	-12.211
▁soundtrack	-12.211
▁spartacus	-12.211
▁ternopil	-12.211
▁ubuntu	-12.211
▁uranium	-12.211
▁venezia	-12.211
▁yểu	-12.211
▁đấm	-12.211
実	-12.211
時	-12.211
爾	-12.211
/12/19	-12.211
tomorrow	-12.211
vostok	-12.211
▁albion	-12.211
▁caroline	-12.211
▁encamp	-12.211
▁filter	-12.211
▁jazz	-12.211
▁laptop	-12.211
▁lewis	-12.211
▁ngạo	-12.211
▁sorø	-12.211
▁startup	-12.211
▁sughd	-12.211
▁tuộc	-12.211
」	-12.211
信	-12.211
福	-12.211
▁domingo	-12.211
▁nelson	-12.211
▁odessa	-12.211
さ	-12.211
巴	-12.211
珠	-12.211
西	-12.211
順	-12.211
▁again	-12.211
▁broadcasting	-12.211
▁gustav	-12.211
▁hitachi	-12.211
▁huyệt	-12.211
▁nissan	-12.211
▁reigen	-12.211
▁yarra	-12.211
ド	-12.211
▁(1829)	-12.211
▁2012-13	-12.211
▁diệm	-12.211
▁glass	-12.211
▁litva	-12.211
▁wcw	-12.211
張	-12.211
▁lanark	-12.211
▁tajik	-12.211
▁4–0	-12.211
▁cohen	-12.211
▁nản	-12.211
kitsune	-12.211
▁ananta	-12.211
▁femenin	-12.211
▁mirza	-12.211
慈	-12.211
▁manila	-12.211
▁sugawara	-12.211
▁1876	-12.211
▁services	-12.211
megumi	-12.211
reave	-12.211
▁swing	-12.211
▁observator	-12.211
service	-12.211
▁foundation	-12.211
▁bauer	-12.211
源氏	-12.211
▁2/3	-12.211
foot	-12.2111
ophon	-12.2111
▁dongdaemun	-12.2111
▁hassan	-12.2111
▁butoh	-12.2111
▁stanley	-12.2111
▁basil	-12.2111
▁industries	-12.2111
▁grant	-12.2111
▁beryl	-12.2111
▁nitrit	-12.2111
▁byung	-12.2111
acanth	-12.2111
▁garden	-12.2112
▁morris	-12.2112
▁premiership	-12.2112
social	-12.2112
▁cháo	-12.2112
▁michiru	-12.2112
▁chầu	-12.2112
▁mallard	-12.2112
▁union	-12.2112
▁blade	-12.2113
▁under	-12.2113
▁castle	-12.2113
▁takeshi	-12.2113
▁moore	-12.2113
▁cubs	-12.2113
▁incheon	-12.2113
▁historia	-12.2114
▁after	-12.2114
▁hirose	-12.2114
▁iphone	-12.2114
▁stern	-12.2114
▁lovell	-12.2114
▁imam	-12.2114
▁palmer	-12.2115
▁đẽ	-12.2115
▁gifu	-12.2115
▁1904	-12.2115
wyn	-12.2115
▁derby	-12.2115
▁kerala	-12.2115
nadine	-12.2116
why	-12.2117
▁melon	-12.2117
▁ikami	-12.2117
▁view	-12.2119
▁carter	-12.2119
▁trệ	-12.2119
dené	-12.212
defense	-12.212
▁dào	-12.2121
▁htv	-12.2121
▁oyu	-12.2122
▁kobe	-12.2122
▁cannon	-12.2122
▁drama	-12.2122
▁shoya	-12.2122
▁nicola	-12.2123
▁productions	-12.2124
▁kapp	-12.2124
▁yale	-12.2125
▁1336	-12.2125
▁aral	-12.2125
▁marina	-12.2127
▁tribe	-12.2128
▁conrad	-12.2128
▁allen	-12.2129
▁cù	-12.2129
melano	-12.213
▁lamia	-12.2131
▁héo	-12.2131
▁tủy	-12.2131
▁pô	-12.2131
▁mạt	-12.2132
6-0	-12.2133
▁1899	-12.2137
uhl	-12.2138
kā	-12.2139
▁persi	-12.2139
▁meme	-12.2139
▁konin	-12.214
▁dì	-12.2141
▁1878	-12.2142
▁thoa	-12.2142
▁bras	-12.2142
▁stew	-12.2142
▁lắc	-12.2143
▁ict	-12.2145
ummy	-12.2149
▁búp	-12.2149
tefan	-12.2151
▁indiana	-12.2156
▁hbo	-12.2157
781	-12.2158
▁1860	-12.2159
▁iwa	-12.2165
muel	-12.2168
cola	-12.2171
hăm	-12.2193
hūkyō	-12.2193
ponte	-12.2201
www	-12.2201
▁seri	-12.2227
1722)	-12.2229
▁kinna	-12.2233
alli	-12.2233
come	-12.2235
▁corte	-12.2248
vice	-12.2254
▁1.0	-12.23
plasm	-12.2304
▁fee	-12.2311
▁balti	-12.2315
gaya	-12.2317
wiz	-12.2323
2.000	-12.2323
heri	-12.2324
▁poll	-12.2328
winter	-12.2331
▁sandow	-12.2336
shion	-12.2373
liver	-12.2379
hanom	-12.2381
tokyo	-12.2399
▁herman	-12.2402
event	-12.2406
▁player	-12.2449
faisaly	-12.249
▁vari	-12.2501
▁lynn	-12.2563
fried	-12.2631
tenno	-12.2641
▁grad	-12.2642
gate	-12.2646
rạng	-12.265
orba	-12.2672
elder	-12.2694
ready	-12.2756
armin	-12.2769
antha	-12.2782
▁process	-12.2859
1989	-12.2865
homo	-12.2878
▁pap	-12.2885
▁ché	-12.2931
hand	-12.2944
erek	-12.296
minor	-12.2964
chelle	-12.2982
guk	-12.3063
echt	-12.3067
iệp	-12.3078
rước	-12.3099
▁(165	-12.3116
kanda	-12.3132
▁page	-12.3152
▁dominic	-12.3197
huyền	-12.3266
đế	-12.3266
pierre	-12.3275
drod	-12.3275
kōgon	-12.3276
general	-12.3276
point	-12.3277
truyện	-12.3278
trứng	-12.3278
biểu	-12.3278
lưu	-12.3278
bạn	-12.3278
cộng	-12.3278
ngôi	-12.3279
khác	-12.328
nhiều	-12.3281
luôn	-12.3281
burn	-12.3282
trị	-12.3283
trở	-12.3285
left	-12.3287
▁4.0	-12.3288
bên	-12.329
jamin	-12.3311
ưởng	-12.3345
huộc	-12.3355
▁victor	-12.3359
敬	-12.336
歌	-12.336
花	-12.336
र	-12.336
鬼	-12.336
新	-12.336
格	-12.336
γ	-12.336
▁mephisto	-12.336
会	-12.336
壽	-12.336
이	-12.336
abwehr	-12.336
capsule	-12.336
nautilus	-12.336
pfalz	-12.336
script	-12.336
vorskla	-12.336
▁backscatter	-12.336
▁gentlemen	-12.336
▁insadong	-12.336
▁keyboard	-12.336
▁lieutenant	-12.336
▁petersburg	-12.336
▁trotsky	-12.336
憲	-12.336
正	-12.336
章	-12.336
趙	-12.336
akwụkwọ	-12.336
calliope	-12.336
certification	-12.336
english	-12.336
garuta	-12.336
hunminjeongeum	-12.336
isepala	-12.336
î	-12.336
▁1997–98	-12.336
▁2000–01	-12.336
▁2002–03	-12.336
▁aerogel	-12.336
▁ahmed	-12.336
▁akosombo	-12.336
▁alcobaça	-12.336
▁alexandra	-12.336
▁antwerp	-12.336
▁arsenobetain	-12.336
▁artemis	-12.336
▁benfica	-12.336
▁bluetooth	-12.336
▁buchephalus	-12.336
▁buckner	-12.336
▁budapest	-12.336
▁bundesliga	-12.336
▁cicatricosa	-12.336
▁croesus	-12.336
▁crypton	-12.336
▁daedalma	-12.336
▁doukaina	-12.336
▁dằn	-12.336
▁ethiopia	-12.336
▁eunotosaurus	-12.336
▁european	-12.336
▁franco	-12.336
▁fuyug	-12.336
▁gagarin	-12.336
▁glaive	-12.336
▁gontcharov	-12.336
▁goryeo	-12.336
▁griffith	-12.336
▁guterres	-12.336
▁gynura	-12.336
▁hendrik	-12.336
▁hispaniola	-12.336
▁ibrahim	-12.336
▁inoue	-12.336
▁ishinomori	-12.336
▁izumo	-12.336
▁jjigae	-12.336
▁kampong	-12.336
▁kartvelia	-12.336
▁kataragama	-12.336
▁konstantinos	-12.336
▁koretada	-12.336
▁kōgyoku	-12.336
▁lobelia	-12.336
▁lublin	-12.336
▁luộc	-12.336
▁lợt	-12.336
▁mamamoo	-12.336
▁meditation	-12.336
▁memorial	-12.336
▁mississippi	-12.336
▁monoxide	-12.336
▁ngốc	-12.336
▁nhẵn	-12.336
▁nvidia	-12.336
▁olimpiysky	-12.336
▁oracle	-12.336
▁painting	-12.336
▁pecheneg	-12.336
▁perlatus	-12.336
▁phanxicô	-12.336
▁pilseung	-12.336
▁pulitzer	-12.336
▁republic	-12.336
▁research	-12.336
▁review	-12.336
▁ryukyu	-12.336
▁saemaul	-12.336
▁samakhom	-12.336
▁sampdoria	-12.336
▁sanguinea	-12.336
▁santiago	-12.336
▁scherrer	-12.336
▁settings	-12.336
▁shiganshina	-12.336
▁shinagawa	-12.336
▁sutherland	-12.336
▁sấu	-12.336
▁taggart	-12.336
▁thẫm	-12.336
▁tợn	-12.336
▁vicetone	-12.336
▁viscount	-12.336
▁vishnu	-12.336
▁wallace	-12.336
▁wisconsin	-12.336
▁worcester	-12.336
▁yamagata	-12.336
▁yuzuru	-12.336
劉	-12.336
土	-12.336
太	-12.336
守	-12.336
寧	-12.336
曹	-12.336
衛	-12.336
貴	-12.336
tetraodon	-12.336
▁0-0	-12.336
▁adreno	-12.336
▁aurora	-12.336
▁cosplay	-12.336
▁cuadra	-12.336
▁edeka	-12.336
▁emirau	-12.336
▁generation	-12.336
▁gilbert	-12.336
▁itunes	-12.336
▁kirby	-12.336
▁komuro	-12.336
▁malesia	-12.336
▁nexus	-12.336
▁oxford	-12.336
▁shield	-12.336
▁tohoku	-12.336
▁weimar	-12.336
と	-12.336
ム	-12.336
之	-12.336
春	-12.336
等	-12.336
裕	-12.336
额	-12.336
chūg	-12.336
computer	-12.336
▁ampère	-12.336
▁muhamm	-12.336
▁musker	-12.336
▁pablo	-12.336
▁tauern	-12.336
バ	-12.336
保	-12.336
定	-12.336
～	-12.336
plectro	-12.336
▁emilia	-12.336
▁indica	-12.336
▁major	-12.336
▁weibo	-12.336
東	-12.336
▁anthon	-12.336
▁bahnar	-12.336
▁diesel	-12.336
▁flati	-12.336
▁osabe	-12.336
▁weiss	-12.336
▁zuny	-12.336
フ	-12.336
estatic	-12.336
к	-12.336
▁ayase	-12.336
▁pvf	-12.336
▁uspd	-12.336
純	-12.336
bubble	-12.336
▁atlas	-12.336
▁jvp	-12.336
▁watch	-12.336
▁(2001)	-12.336
九	-12.336
nippon	-12.336
▁cowboys	-12.336
▁epdm	-12.336
▁tybur	-12.336
▁(1827)	-12.336
▁80.82	-12.336
▁lagoa	-12.336
▁fukushima	-12.336
shibumi	-12.336
▁bailey	-12.336
▁soaga	-12.336
▁technologi	-12.336
▁4–3	-12.336
▁dzung	-12.336
▁middle	-12.336
▁daisy	-12.336
▁kạn	-12.336
▁yoritomo	-12.336
daguva	-12.336
▁magneti	-12.336
▁nnss	-12.336
▁kearn	-12.336
▁michizane	-12.336
▁byrne	-12.336
内親王	-12.336
▁halsey	-12.336
▁federa	-12.336
▁ralph	-12.336
▁anatoli	-12.336
▁tropica	-12.336
▁morosuke	-12.336
nuclea	-12.336
sachsen	-12.336
▁ỏi	-12.336
▁ldh	-12.336
▁5-0	-12.336
exile	-12.336
▁vbt	-12.3361
rname	-12.3361
▁blaze	-12.3361
japanese	-12.3361
▁vonnie	-12.3361
▁setsuna	-12.3361
grove	-12.3361
direct	-12.3361
▁pmc	-12.3361
▁thuyên	-12.3361
▁coast	-12.3361
▁50.8	-12.3361
▁kiew	-12.3361
▁vtc	-12.3361
▁pratia	-12.3361
oshikatsu	-12.3361
lalisa	-12.3362
▁canvas	-12.3362
▁polyme	-12.3362
▁mount	-12.3362
▁asahi	-12.3362
▁ohio	-12.3362
▁district	-12.3362
▁gtk	-12.3362
▁andré	-12.3363
ưỡn	-12.3363
▁report	-12.3363
▁crew	-12.3363
firestone	-12.3363
▁robin	-12.3364
▁sudha	-12.3364
▁cnn	-12.3364
▁30.8	-12.3364
russia	-12.3364
▁fuhito	-12.3364
▁planet	-12.3365
▁01/0	-12.3365
▁què	-12.3365
▁masahito	-12.3365
▁xước	-12.3365
style	-12.3365
▁justi	-12.3365
▁serg	-12.3366
▁biếm	-12.3366
▁haft	-12.3366
▁angus	-12.3366
/01/20	-12.3366
▁rewe	-12.3367
▁ngẩn	-12.3367
▁koyama	-12.3367
▁cược	-12.3367
▁ailen	-12.3368
▁jedi	-12.3368
▁liban	-12.3368
▁parson	-12.3368
5–7	-12.3368
▁singer	-12.3368
▁diaz	-12.3368
▁panel	-12.3369
▁station	-12.3369
ulosa	-12.3369
▁fuku	-12.3369
community	-12.337
▁marist	-12.3371
▁năn	-12.3371
▁coban	-12.3372
▁rôma	-12.3373
▁gelb	-12.3373
▁karen	-12.3374
shibus	-12.3374
▁1392	-12.3374
2–3	-12.3374
▁cạp	-12.3375
▁turb	-12.3375
_11	-12.3376
▁cassi	-12.3376
▁nemo	-12.3376
ahli	-12.3376
▁monet	-12.3377
▁miura	-12.3378
_10	-12.3378
▁patri	-12.3379
▁lổ	-12.3379
rupt	-12.3379
hành	-12.338
llard	-12.3381
▁locu	-12.3383
▁hook	-12.3384
▁front	-12.3384
▁yami	-12.3385
▁inio	-12.3386
▁carta	-12.3387
▁epic	-12.3392
▁(171	-12.3394
renner	-12.3405
oidea	-12.3414
▁guan	-12.343
▁roth	-12.3432
▁charl	-12.3434
uav	-12.3441
▁rankin	-12.3449
mahon	-12.3452
live	-12.3509
/3/20	-12.351
▁iris	-12.3529
ère	-12.3538
erby	-12.3547
curie	-12.3548
ularis	-12.3571
▁3.5	-12.3573
cherry	-12.3576
▁sành	-12.3578
▁sunda	-12.3578
akiko	-12.3585
ký	-12.3602
▁apia	-12.3608
pages	-12.3613
pyeong	-12.3629
xxx	-12.3656
▁cyt	-12.3668
▁unit	-12.3675
▁fall	-12.3676
scher	-12.3688
elas	-12.3706
pracha	-12.3724
steel	-12.3741
0.1	-12.3757
giả	-12.3807
void	-12.3815
1,7	-12.3818
plex	-12.3858
with	-12.3901
6-7	-12.3903
lite	-12.3904
nile	-12.3928
harto	-12.3935
▁nhé	-12.3975
evin	-12.4006
đồ	-12.4083
child	-12.4085
▁lú	-12.4102
ebel	-12.4126
5/5	-12.4128
hashi	-12.4149
-104	-12.4197
humi	-12.4205
ufo	-12.4235
hũ	-12.4245
8.000	-12.4287
quy	-12.4327
5,6	-12.433
tahitian	-12.4342
base	-12.4374
angak	-12.4398
wide	-12.4408
ghê	-12.4432
cọp	-12.4434
achal	-12.4436
1936	-12.4446
dear	-12.45
▁(2011	-12.4532
3,6	-12.4576
“	-12.4641
force	-12.4699
gạch	-12.4701
2016:	-12.4703
kōmyō	-12.4703
ghost	-12.4704
kwajalein	-12.4705
twice	-12.4706
pipet	-12.4706
blackpink	-12.4706
loạn	-12.4707
kiểu	-12.4707
bức	-12.4707
quý	-12.4707
nguyễn	-12.4707
đứng	-12.4707
xếp	-12.4707
dịch	-12.4707
mọi	-12.4707
lạc	-12.4707
tàu	-12.4707
máy	-12.4707
ichijō	-12.4708
touch	-12.471
phân	-12.471
trò	-12.471
thượng	-12.4711
thiết	-12.4715
giới	-12.4715
đảng	-12.4716
high	-12.4716
super	-12.4716
▁kampa	-12.472
hiểu	-12.4729
lone	-12.4748
khả	-12.4756
▁production	-12.477
▁record	-12.4771
▁一等	-12.4777
▁xoá	-12.478
yeongj	-12.4781
▁đốn	-12.4781
▁myanma	-12.4784
▁chồn	-12.4786
hỉnh	-12.4786
▁televis	-12.4788
小	-12.4788
logical	-12.4788
四	-12.4788
承	-12.4788
屋	-12.4788
那	-12.4788
ε	-12.4788
ω	-12.4788
्	-12.4788
史	-12.4788
合	-12.4788
園	-12.4788
崇	-12.4788
å	-12.4788
▁apgujeong	-12.4788
き	-12.4788
ゲ	-12.4788
生	-12.4788
直	-12.4788
良	-12.4788
重	-12.4788
aphididae	-12.4788
borough	-12.4788
certified	-12.4788
gaztelugatxe	-12.4788
glutathion	-12.4788
hauptbahnhof	-12.4788
hiragana	-12.4788
kinnarā	-12.4788
leuronectiformes	-12.4788
maharashtra	-12.4788
physics	-12.4788
platform	-12.4788
wentsaiboea	-12.4788
yomifuda	-12.4788
ř	-12.4788
▁1990–91	-12.4788
▁1994–95	-12.4788
▁2001–02	-12.4788
▁47/32	-12.4788
▁abrams	-12.4788
▁acoustic	-12.4788
▁affairs	-12.4788
▁aleksandr	-12.4788
▁aporusa	-12.4788
▁aristotle	-12.4788
▁athabaska	-12.4788
▁barcelona	-12.4788
▁barkingside	-12.4788
▁beograd	-12.4788
▁brachypomus	-12.4788
▁camargue	-12.4788
▁campbell	-12.4788
▁castelo	-12.4788
▁christmas	-12.4788
▁chẵn	-12.4788
▁cyanotus	-12.4788
▁designbold	-12.4788
▁dhabh	-12.4788
▁donghae	-12.4788
▁ecuador	-12.4788
▁falkirk	-12.4788
▁ferdinand	-12.4788
▁fernand	-12.4788
▁function	-12.4788
▁gentleman	-12.4788
▁ghetto	-12.4788
▁gibbs	-12.4788
▁guardian	-12.4788
▁haeundae	-12.4788
▁herodotus	-12.4788
▁hokkaidō	-12.4788
▁honduras	-12.4788
▁huntly	-12.4788
▁ichimonji	-12.4788
▁ithaca	-12.4788
▁jakarta	-12.4788
▁joshua	-12.4788
▁jōkyū	-12.4788
▁kaikoura	-12.4788
▁kamelot	-12.4788
▁karaoke	-12.4788
▁kharkiv	-12.4788
▁koshiba	-12.4788
▁kyūshū	-12.4788
▁latakia	-12.4788
▁lloyd	-12.4788
▁louisiana	-12.4788
▁lucknow	-12.4788
▁majdanek	-12.4788
▁marketing	-12.4788
▁mauritius	-12.4788
▁momokawa	-12.4788
▁momozono	-12.4788
▁nagatsuka	-12.4788
▁netflix	-12.4788
▁ngẫm	-12.4788
▁nhặt	-12.4788
▁nostalgi	-12.4788
▁nyōgo	-12.4788
▁oldendorf	-12.4788
▁orchestra	-12.4788
▁orlando	-12.4788
▁phosphor	-12.4788
▁pikotaro	-12.4788
▁potsdam	-12.4788
▁president	-12.4788
▁printtwonumbers	-12.4788
▁pyruvat	-12.4788
▁receptor	-12.4788
▁sabelpoot	-12.4788
▁salonpas	-12.4788
▁sapphire	-12.4788
▁screen	-12.4788
▁shaharah	-12.4788
▁shōtoku	-12.4788
▁sidibe	-12.4788
▁soudatsusen	-12.4788
▁spears	-12.4788
▁stewart	-12.4788
▁symph	-12.4788
▁symphony	-12.4788
▁tennessee	-12.4788
▁terrier	-12.4788
▁thạnh	-12.4788
▁torrens	-12.4788
▁uzbek	-12.4788
▁visayas	-12.4788
▁vểnh	-12.4788
▁weverse	-12.4788
▁whitehorse	-12.4788
▁widow	-12.4788
▁wildcat	-12.4788
▁wolfsburg	-12.4788
▁yamashita	-12.4788
▁zombie	-12.4788
▁łódź	-12.4788
ジ	-12.4788
令	-12.4788
六	-12.4788
国	-12.4788
津	-12.4788
済	-12.4788
iflora	-12.4788
secret	-12.4788
▁apache	-12.4788
▁bureau	-12.4788
▁challenge	-12.4788
▁dimethyl	-12.4788
▁french	-12.4788
▁liệm	-12.4788
▁nellis	-12.4788
▁truồng	-12.4788
▁valencia	-12.4788
african	-12.4788
י	-12.4788
▁aikido	-12.4788
▁arlert	-12.4788
▁asumu	-12.4788
▁bieber	-12.4788
▁calvin	-12.4788
▁chthon	-12.4788
▁cream	-12.4788
▁gojiro	-12.4788
▁graphic	-12.4788
▁heaven	-12.4788
▁joyce	-12.4788
▁lipid	-12.4788
▁mizuho	-12.4788
▁ngói	-12.4788
▁place	-12.4788
▁police	-12.4788
▁puppet	-12.4788
▁rajput	-12.4788
▁viktor	-12.4788
た	-12.4788
二	-12.4788
吴	-12.4788
國	-12.4788
承恩	-12.4788
甲	-12.4788
기	-12.4788
franç	-12.4788
ś	-12.4788
▁dalawa	-12.4788
▁lactic	-12.4788
▁phillip	-12.4788
▁süd	-12.4788
淑	-12.4788
色	-12.4788
시	-12.4788
myfunc	-12.4788
therapy	-12.4788
▁náu	-12.4788
▁servo	-12.4788
▁tamatoa	-12.4788
的	-12.4788
▁0–0	-12.4788
▁debian	-12.4788
▁dennis	-12.4788
▁rumani	-12.4788
▁server	-12.4788
河	-12.4788
▁(2006)	-12.4788
▁5–0	-12.4788
▁gomez	-12.4788
▁phenol	-12.4788
▁grice	-12.4788
▁mercy	-12.4788
addict	-12.4788
▁(2003)	-12.4788
▁commerc	-12.4788
侍	-12.4788
atassi	-12.4788
▁(2008)	-12.4788
▁nature	-12.4788
▁nouve	-12.4788
母	-12.4788
zinger	-12.4788
▁punk	-12.4788
▁snake	-12.4788
隆	-12.4788
rriff	-12.4788
▁mọng	-12.4788
▁athena	-12.4788
▁hpv	-12.4788
▁italy	-12.4788
▁vnđ	-12.4788
maculata	-12.4788
▁next	-12.4788
▁engine	-12.4788
▁chaekyung	-12.4789
▁gauss	-12.4789
▁thpt	-12.4789
▁scopes	-12.4789
daimyō	-12.4789
▁tomoe	-12.4789
▁cathy	-12.4789
[8]	-12.4789
enryaku	-12.4789
aquila	-12.4789
elastic	-12.4789
rhône	-12.4789
negara	-12.4789
happy	-12.4789
▁roswell	-12.4789
▁highball	-12.4789
▁pyrene	-12.4789
="#	-12.4789
ção	-12.4789
▁lcd	-12.4789
▁1861	-12.4789
wizard	-12.4789
▁kōkō	-12.4789
▁hisaishi	-12.4789
▁mitch	-12.4789
▁zenko	-12.4789
▁german	-12.4789
▁adrian	-12.4789
▁musashi	-12.4789
▁intel	-12.479
▁mohammed	-12.479
smtm	-12.479
▁tennis	-12.479
▁bhd	-12.479
▁yasin	-12.479
/10/2016	-12.479
▁yoshiakira	-12.479
▁1/8	-12.479
▁burtt	-12.479
▁harbor	-12.479
▁husky	-12.479
▁tphcm	-12.479
▁zakar	-12.4791
▁(2017)	-12.4791
▁potter	-12.4791
▁ruồng	-12.4791
/11/2016	-12.4791
travel	-12.4791
▁aryan	-12.4791
▁morton	-12.4791
internal	-12.4791
porno	-12.4791
▁nagaoka	-12.4791
▁shijō	-12.4792
▁sporti	-12.4792
▁0-1	-12.4792
▁daimon	-12.4792
techne	-12.4792
nothing	-12.4792
gangnam	-12.4792
▁orion	-12.4793
▁exec	-12.4793
▁hull	-12.4793
ichirō	-12.4793
▁joseon	-12.4793
▁khương	-12.4793
▁adak	-12.4793
▁leader	-12.4793
▁yangon	-12.4794
wonderful	-12.4794
▁jessica	-12.4794
▁allah	-12.4794
▁galano	-12.4794
▁trust	-12.4795
eyak	-12.4795
▁7–1	-12.4795
▁khấn	-12.4795
▁yoshihito	-12.4795
▁indra	-12.4795
alpes	-12.4796
▁0,5	-12.4796
▁hiroshima	-12.4796
nomiya	-12.4797
▁food	-12.4797
dharma	-12.4798
campe	-12.48
▁fear	-12.4801
▁porc	-12.4803
▁talk	-12.4805
fsd	-12.4806
whistle	-12.4806
▁polyg	-12.4806
▁ymc	-12.4806
▁bohe	-12.4809
stadt	-12.4811
gibbo	-12.4813
▁fumi	-12.4815
oupe	-12.4817
sort	-12.4817
▁link	-12.4818
▁leuco	-12.4823
▁lieb	-12.4825
uôi	-12.4826
comment	-12.4826
olini	-12.4827
ealth	-12.4827
tank	-12.4828
▁strat	-12.4834
4-3	-12.4843
raging	-12.4859
nobili	-12.4864
▁1081	-12.4867
▁quầ	-12.487
harper	-12.4885
▁mare	-12.4891
corona	-12.4895
saccu	-12.4896
mochi	-12.4896
megur	-12.4919
933	-12.4923
tml	-12.4968
superstar	-12.5018
barbus	-12.5037
oãn	-12.5042
▁excel	-12.5072
step	-12.5086
938	-12.5112
einer	-12.5136
vijay	-12.5139
elim	-12.514
renton	-12.5159
78,	-12.5217
▁marlo	-12.5281
level	-12.5285
mayer	-12.5304
2017	-12.5307
hatta	-12.5341
▁(185	-12.5388
1958)	-12.5391
1,4	-12.5404
awada	-12.541
oản	-12.5481
igor	-12.5484
epara	-12.5514
gerry	-12.5538
myst	-12.5546
0-100	-12.5578
1941)	-12.5651
wyth	-12.5706
1723)	-12.5865
ruy	-12.5946
▁prest	-12.5957
▁2011-201	-12.605
thumb	-12.6077
laser	-12.6132
adahito	-12.6198
4.3	-12.625
bismarck	-12.637
square	-12.637
aleut	-12.6371
scarlet	-12.6372
royal	-12.6372
school	-12.6372
prince	-12.6373
vocaloid	-12.6373
protein	-12.6373
vạn	-12.6373
mộc	-12.6373
khủng	-12.6373
thụy	-12.6373
đời	-12.6374
giữa	-12.6374
chạy	-12.6374
súng	-12.6374
heart	-12.6374
phồn	-12.6375
phiên	-12.6377
ướt	-12.6378
film	-12.6378
duced	-12.6385
▁pasteur	-12.6401
▁brother	-12.6437
deutsch	-12.6445
▁clark	-12.6449
▁marshal	-12.6449
ẳ	-12.6451
iyev	-12.6453
▁mohamm	-12.6454
▁pepsi	-12.6454
に	-12.6455
体	-12.6455
年	-12.6455
こ	-12.6455
后	-12.6455
地	-12.6455
▁pepper	-12.6455
▁chennai	-12.6455
め	-12.6455
行	-12.6455
신	-12.6455
ו	-12.6455
ち	-12.6455
л	-12.6455
十	-12.6455
心	-12.6455
麻	-12.6455
ɪ	-12.6455
▁makiyiv	-12.6455
图	-12.6455
의	-12.6455
chestnut	-12.6455
ł	-12.6455
г	-12.6455
▁piranha	-12.6455
▁schwarz	-12.6455
カ	-12.6455
名	-12.6455
督	-12.6455
禄	-12.6455
罗	-12.6455
近	-12.6455
하	-12.6455
/7/19	-12.6455
10.2016	-12.6455
^	-12.6455
amphiprion	-12.6455
apprentice	-12.6455
characteristic	-12.6455
colossoma	-12.6455
constantinopolis	-12.6455
deveronvale	-12.6455
everybody	-12.6455
faustpatrone	-12.6455
hyeok	-12.6455
kômyô	-12.6455
marshmallow	-12.6455
mémoire	-12.6455
münch	-12.6455
nihonshoki	-12.6455
osteogloss	-12.6455
pcmanfm	-12.6455
thoroughbred	-12.6455
whorls	-12.6455
yamashiro	-12.6455
}	-12.6455
ğ	-12.6455
ı	-12.6455
்	-12.6455
ම	-12.6455
▁1961–62	-12.6455
▁1985–86	-12.6455
▁1992–93	-12.6455
▁1993–94	-12.6455
▁1996–97	-12.6455
▁1999–2000	-12.6455
▁2003–04	-12.6455
▁2004–05	-12.6455
▁adventure	-12.6455
▁agouti	-12.6455
▁alcántara	-12.6455
▁alejandr	-12.6455
▁amateur	-12.6455
▁ambiguus	-12.6455
▁antananarivo	-12.6455
▁ashurbeyli	-12.6455
▁atsuhira	-12.6455
▁authority	-12.6455
▁badakhshan	-12.6455
▁begins	-12.6455
▁blitzer	-12.6455
▁brooch	-12.6455
▁cabadin	-12.6455
▁carpathia	-12.6455
▁charlotte	-12.6455
▁codename	-12.6455
▁collins	-12.6455
▁constituenc	-12.6455
▁construction	-12.6455
▁cruise	-12.6455
▁damjanović	-12.6455
▁department	-12.6455
▁diogenes	-12.6455
▁druids	-12.6455
▁eberhard	-12.6455
▁engordany	-12.6455
▁ensemble	-12.6455
▁escalation	-12.6455
▁esculape	-12.6455
▁evolution	-12.6455
▁extension	-12.6455
▁extreme	-12.6455
▁finschhafen	-12.6455
▁florence	-12.6455
▁frankfurt	-12.6455
▁galactica	-12.6455
▁galbraith	-12.6455
▁glycine	-12.6455
▁gondola	-12.6455
▁graffitti	-12.6455
▁guinness	-12.6455
▁hauschka	-12.6455
▁heavyweight	-12.6455
▁henderson	-12.6455
▁hydrophyllaceae	-12.6455
▁iglesias	-12.6455
▁including	-12.6455
▁inverurie	-12.6455
▁isabel	-12.6455
▁kaleido	-12.6455
▁kobayashi	-12.6455
▁kosterlitz	-12.6455
▁lavender	-12.6455
▁lebanon	-12.6455
▁leonhart	-12.6455
▁luxemburg	-12.6455
▁magnitude	-12.6455
▁makamou	-12.6455
▁maluma	-12.6455
▁marlene	-12.6455
▁materials	-12.6455
▁maximilian	-12.6455
▁midtjylland	-12.6455
▁minutihamata	-12.6455
▁mobility	-12.6455
▁mughal	-12.6455
▁muromachi	-12.6455
▁mustafa	-12.6455
▁myriophyllum	-12.6455
▁müntzer	-12.6455
▁ngứa	-12.6455
▁ominato	-12.6455
▁paralympics	-12.6455
▁pêru	-12.6455
▁qamdo	-12.6455
▁ralambo	-12.6455
▁russell	-12.6455
▁samarkand	-12.6455
▁sassuolo	-12.6455
▁shizuoka	-12.6455
▁shoudatsusen	-12.6455
▁spinolestes	-12.6455
▁stabilizer	-12.6455
▁stoddart	-12.6455
▁stuart	-12.6455
▁sundance	-12.6455
▁sõrve	-12.6455
▁tampines	-12.6455
▁thối	-12.6455
▁tonopah	-12.6455
▁trombicula	-12.6455
▁tsubota	-12.6455
▁vanuatu	-12.6455
▁vehicle	-12.6455
▁vữa	-12.6455
▁wagner	-12.6455
▁wrestling	-12.6455
▁yokota	-12.6455
▁youngblood	-12.6455
▁zagreb	-12.6455
▁zyuman	-12.6455
▁đhqgtphcm	-12.6455
♭	-12.6455
》	-12.6455
〜	-12.6455
み	-12.6455
る	-12.6455
サ	-12.6455
侯	-12.6455
吏	-12.6455
戦士	-12.6455
政	-12.6455
教	-12.6455
景	-12.6455
該	-12.6455
都指揮使	-12.6455
리	-12.6455
소	-12.6455
/1232	-12.6455
dihydro	-12.6455
moscato	-12.6455
▁abcde	-12.6455
▁family	-12.6455
▁freedom	-12.6455
▁kernel	-12.6455
▁lẳng	-12.6455
▁maribor	-12.6455
▁midway	-12.6455
▁panther	-12.6455
▁phộng	-12.6455
▁support	-12.6455
▁sword	-12.6455
▁virgil	-12.6455
▁xiumin	-12.6455
▁yellow	-12.6455
▁zoë	-12.6455
う	-12.6455
京	-12.6455
元	-12.6455
善	-12.6455
夏	-12.6455
帝	-12.6455
本	-12.6455
熙	-12.6455
管	-12.6455
장	-12.6455
cycle	-12.6455
lucifer	-12.6455
п	-12.6455
▁0-6	-12.6455
▁70-200	-12.6455
▁creativ	-12.6455
▁dalmia	-12.6455
▁fujieda	-12.6455
▁margot	-12.6455
▁parabol	-12.6455
▁raffles	-12.6455
▁rantou	-12.6455
李	-12.6455
根	-12.6455
position	-12.6455
в	-12.6455
▁austin	-12.6455
▁disneysea	-12.6455
▁nách	-12.6455
▁nấng	-12.6455
▁robbi	-12.6455
▁đìa	-12.6455
な	-12.6455
仮面ライダー	-12.6455
姫	-12.6455
lexandria	-12.6455
papercut	-12.6455
xhcn	-12.6455
д	-12.6455
▁fusako	-12.6455
▁knights	-12.6455
▁ndrc	-12.6455
▁oahu	-12.6455
▁platin	-12.6455
领	-12.6455
▁microsd	-12.6455
▁stronger	-12.6455
▁superior	-12.6455
▁thammasat	-12.6455
▁viacom	-12.6455
力	-12.6455
▁(2018)	-12.6455
▁bực	-12.6455
▁hanks	-12.6455
▁lucas	-12.6455
▁lụi	-12.6455
ガ	-12.6455
▁braque	-12.6455
▁gmbh	-12.6455
▁kaoru	-12.6455
▁naples	-12.6455
▁large	-12.6455
▁maroon	-12.6455
▁smtown	-12.6455
lapse	-12.6455
▁kryv	-12.6455
▁mafia	-12.6455
▁politic	-12.6455
▁quick	-12.6455
▁vivian	-12.6455
上	-12.6455
▁ballad	-12.6455
▁toyohashi	-12.6455
▁olsen	-12.6455
メ	-12.6455
▁yamaha	-12.6455
sashimo	-12.6455
backward	-12.6455
▁(2004)	-12.6455
software	-12.6455
▁email	-12.6455
▁rụi	-12.6455
partick	-12.6455
▁smartphone	-12.6455
▁mello	-12.6455
▁(1997)	-12.6455
▁coach	-12.6455
▁duroc	-12.6455
▁trachy	-12.6455
pangasi	-12.6455
pulse	-12.6455
▁soundcloud	-12.6455
blocking	-12.6455
▁dispar	-12.6455
▁moses	-12.6455
▁twin	-12.6455
collage	-12.6455
▁spiral	-12.6455
▁3/11	-12.6455
▁1–2	-12.6455
▁cultura	-12.6455
▁value	-12.6455
▁btob	-12.6455
▁surnow	-12.6455
phasto	-12.6456
▁saab	-12.6456
▁poltava	-12.6456
▁chaeyeon	-12.6456
▁rosenfel	-12.6456
▁seattle	-12.6456
finding	-12.6456
▁hsr	-12.6456
▁federation	-12.6456
明親王	-12.6456
▁merlion	-12.6456
emperor	-12.6456
▁nakamaro	-12.6456
nengō	-12.6456
▁taeyeon	-12.6456
▁1/3	-12.6456
▁jennie	-12.6456
▁webfoot	-12.6456
yril	-12.6456
▁herbert	-12.6456
▁morihira	-12.6456
▁bmw	-12.6456
before	-12.6456
▁7-8	-12.6456
▁goldberg	-12.6456
▁daegu	-12.6456
▁kpd	-12.6456
▁kulob	-12.6456
▁michitaka	-12.6456
皇子	-12.6456
barrier	-12.6456
▁yukon	-12.6456
▁georgetown	-12.6456
valier	-12.6456
▁(1677)	-12.6456
▁bellini	-12.6456
class	-12.6456
▁found	-12.6456
▁shakira	-12.6456
▁fife	-12.6456
escens	-12.6456
ltava	-12.6457
▁rpg	-12.6457
▁anakin	-12.6457
▁nhầy	-12.6457
▁remus	-12.6457
▁kanehito	-12.6457
volyn	-12.6457
circu	-12.6457
mbled	-12.6458
▁graham	-12.6459
▁rodrig	-12.6459
▁0-2	-12.6459
sdale	-12.6459
▁syah	-12.6459
gangyō	-12.6459
▁basl	-12.6459
▁plato	-12.6459
▁oceani	-12.6459
▁animat	-12.646
when	-12.6461
pitch	-12.6461
-81	-12.6463
▁brent	-12.6463
▁mauric	-12.6464
子女	-12.6465
cture	-12.6466
volume	-12.6468
▁iod	-12.6473
ougai	-12.6477
▁grim	-12.6478
ươm	-12.6481
evada	-12.6483
yip	-12.6483
shimizu	-12.6487
rsten	-12.6488
tudy	-12.6492
cinc	-12.6492
hirai	-12.6493
▁sieg	-12.6495
1883)	-12.6499
cessor	-12.6501
▁geoffr	-12.6506
eddy	-12.6508
indochine	-12.6511
vols	-12.6519
histori	-12.6526
ethyltransferase	-12.6531
addy	-12.6545
▁ashok	-12.6548
oux	-12.6557
kampaku	-12.6562
electronic	-12.6567
6-8	-12.6594
arima	-12.662
fantasti	-12.6629
slam	-12.6651
apor	-12.6657
1681)	-12.6661
owski	-12.6692
hōgen	-12.6743
tuxe	-12.6807
michaels	-12.681
1,9	-12.6812
campto	-12.6901
titanic	-12.7045
0.0	-12.709
agik	-12.7158
7.7	-12.7218
romano	-12.7381
flav	-12.7447
0-4	-12.7689
▁(187	-12.8039
azam	-12.8068
3/2020	-12.8242
▁virtu	-12.8275
1760	-12.8309
ș	-12.8331
ayat	-12.8343
▁fantas	-12.8362
court	-12.8371
countdown	-12.8371
business	-12.8371
april	-12.8371
kikujiro	-12.8372
brown	-12.8372
vietnam	-12.8372
great	-12.8372
tảo	-12.8372
white	-12.8372
precious	-12.8373
kyokushin	-12.8373
minamoto	-12.8373
david	-12.8373
dvd	-12.8373
thạch	-12.8373
united	-12.8373
formula	-12.8373
đảm	-12.8373
nhiệm	-12.8374
hoạt	-12.8374
núi	-12.8374
tòa	-12.8374
sản	-12.8374
hộp	-12.8377
▁11/200	-12.8384
-2016)	-12.839
▁chrys	-12.8403
fronta	-12.8419
▁window	-12.8437
▁oleksandr	-12.8445
▁chạc	-12.8447
▁12/12	-12.8449
▁industri	-12.8453
▁clint	-12.8454
▁zyuoh	-12.8455
▁saraw	-12.8455
rihira	-12.8455
昭	-12.8455
▁church	-12.8455
cowboy	-12.8455
▁stirling	-12.8455
藤	-12.8455
ア	-12.8455
八旗	-12.8455
恩	-12.8455
戦	-12.8455
infante	-12.8455
dzerzh	-12.8455
ς	-12.8455
ב	-12.8455
ر	-12.8455
س	-12.8455
▁fibro	-12.8455
baptiste	-12.8455
clorofom	-12.8455
scorpaeniformes	-12.8455
נ	-12.8455
▁giorgio	-12.8455
▁purpureolineata	-12.8455
▁serrasalm	-12.8455
/8/19	-12.8455
8–135	-12.8455
ability	-12.8455
aikinia	-12.8455
calédonie	-12.8455
crunchyroll	-12.8455
eclipse	-12.8455
fiorentina	-12.8455
führer	-12.8455
gesellschaft	-12.8455
groove	-12.8455
heterotricha	-12.8455
identif	-12.8455
ifolium	-12.8455
llanerch	-12.8455
meaningoflife	-12.8455
nijūichidaishū	-12.8455
ostbahnhof	-12.8455
overninethousand	-12.8455
remember	-12.8455
steinsdalsfossen	-12.8455
stylosanthes	-12.8455
technology	-12.8455
trichixos	-12.8455
yunnanensis	-12.8455
západ	-12.8455
ος	-12.8455
ת	-12.8455
▁1895–96	-12.8455
▁1962–63	-12.8455
▁1973–74	-12.8455
▁aequifasciatus	-12.8455
▁airdrie	-12.8455
▁allergy	-12.8455
▁anguilliformes	-12.8455
▁annabergit	-12.8455
▁anselmo	-12.8455
▁areopagus	-12.8455
▁artbook	-12.8455
▁asatada	-12.8455
▁bolshevik	-12.8455
▁botswana	-12.8455
▁brandenburg	-12.8455
▁breeze	-12.8455
▁bryennios	-12.8455
▁busiek	-12.8455
▁carrocera	-12.8455
▁cartier	-12.8455
▁chemical	-12.8455
▁chenillette	-12.8455
▁chōkei	-12.8455
▁cienfuegos	-12.8455
▁clachnacuddin	-12.8455
▁commissioner	-12.8455
▁competition	-12.8455
▁cornwall	-12.8455
▁corsair	-12.8455
▁cristian	-12.8455
▁critics	-12.8455
▁damageplan	-12.8455
▁descartes	-12.8455
▁detroit	-12.8455
▁djibouti	-12.8455
▁dodgers	-12.8455
▁eisner	-12.8455
▁elephant	-12.8455
▁engineering	-12.8455
▁eskimo	-12.8455
▁eséka	-12.8455
▁extender	-12.8455
▁factor	-12.8455
▁farhadi	-12.8455
▁ferreira	-12.8455
▁fibonacci	-12.8455
▁filoni	-12.8455
▁flavicaudatus	-12.8455
▁fullerton	-12.8455
▁galactus	-12.8455
▁gegeru	-12.8455
▁gibraltar	-12.8455
▁glyoxysome	-12.8455
▁guevara	-12.8455
▁gyeongbokgung	-12.8455
▁göring	-12.8455
▁hammett	-12.8455
▁hampshire	-12.8455
▁hankyoreh	-12.8455
▁hashimoto	-12.8455
▁hashtag	-12.8455
▁hepburn	-12.8455
▁herodotos	-12.8455
▁howtobasic	-12.8455
▁hđqt	-12.8455
▁immortus	-12.8455
▁indenter	-12.8455
▁independent	-12.8455
▁ingólfr	-12.8455
▁integra	-12.8455
▁involucrat	-12.8455
▁iucn	-12.8455
▁jamshedpur	-12.8455
▁kaesong	-12.8455
▁kagoshima	-12.8455
▁kamatari	-12.8455
▁katsumatae	-12.8455
▁kobanî	-12.8455
▁kodaline	-12.8455
▁kouzuki	-12.8455
▁krasno	-12.8455
▁lancaster	-12.8455
▁langkawi	-12.8455
▁lavandulacea	-12.8455
▁lawrence	-12.8455
▁legacy	-12.8455
▁leptotrombidium	-12.8455
▁linklater	-12.8455
▁linnaeus	-12.8455
▁lucerne	-12.8455
▁magnétique	-12.8455
▁malagasy	-12.8455
▁mandalay	-12.8455
▁manhattan	-12.8455
▁marathon	-12.8455
▁marketplace	-12.8455
▁materialia	-12.8455
▁method	-12.8455
▁minnesota	-12.8455
▁multnomah	-12.8455
▁mustaine	-12.8455
▁muticus	-12.8455
▁mysterio	-12.8455
▁nicaragua	-12.8455
▁ninninger	-12.8455
▁nintendo	-12.8455
▁odango	-12.8455
▁odyssey	-12.8455
▁official	-12.8455
▁oklahoma	-12.8455
▁orange	-12.8455
▁paramount	-12.8455
▁peninsula	-12.8455
▁people	-12.8455
▁peramuna	-12.8455
▁peroxisome	-12.8455
▁polynésie	-12.8455
▁products	-12.8455
▁rhodope	-12.8455
▁rigotti	-12.8455
▁rijeka	-12.8455
▁rouhani	-12.8455
▁saxony	-12.8455
▁september	-12.8455
▁shechita	-12.8455
▁shinzō	-12.8455
▁shogakukan	-12.8455
▁shotoku	-12.8455
▁simferopol	-12.8455
▁singapura	-12.8455
▁smithsonian	-12.8455
▁smyrna	-12.8455
▁snghé	-12.8455
▁soldier	-12.8455
▁spaghetti	-12.8455
▁spotify	-12.8455
▁strahov	-12.8455
▁studies	-12.8455
▁sulfide	-12.8455
▁sullivan	-12.8455
▁suriname	-12.8455
▁surprise	-12.8455
▁tadahira	-12.8455
▁tanjore	-12.8455
▁tanzania	-12.8455
▁thompson	-12.8455
▁thouless	-12.8455
▁thracia	-12.8455
▁thẳm	-12.8455
▁thỉu	-12.8455
▁together	-12.8455
▁tokihira	-12.8455
▁twilight	-12.8455
▁tydfil	-12.8455
▁uganda	-12.8455
▁unicef	-12.8455
▁vaughn	-12.8455
▁vazimba	-12.8455
▁velvet	-12.8455
▁verizon	-12.8455
▁vicenza	-12.8455
▁vinnytsia	-12.8455
▁vitreloy	-12.8455
▁wanderers	-12.8455
▁wannsee	-12.8455
▁wersching	-12.8455
▁westminster	-12.8455
▁wimbledon	-12.8455
▁windsor	-12.8455
▁woleai	-12.8455
▁zucker	-12.8455
▁ōgimachi	-12.8455
▁ōguno	-12.8455
セーラー	-12.8455
五軍都	-12.8455
聖憲皇后	-12.8455
@	-12.8455
blooming	-12.8455
hemiboea	-12.8455
liebigia	-12.8455
▁200-400	-12.8455
▁aegea	-12.8455
▁amazing	-12.8455
▁ceylon	-12.8455
▁christine	-12.8455
▁colorado	-12.8455
▁container	-12.8455
▁curtis	-12.8455
▁gokayama	-12.8455
▁gyeonggi	-12.8455
▁hachiman	-12.8455
▁haeju	-12.8455
▁hetfield	-12.8455
▁iyasada	-12.8455
▁leviné	-12.8455
▁mcteer	-12.8455
▁nablus	-12.8455
▁noboru	-12.8455
▁pledis	-12.8455
▁salesman	-12.8455
▁sterling	-12.8455
▁tencent	-12.8455
▁toorak	-12.8455
▁weeks	-12.8455
▁wellington	-12.8455
▁yeonwoo	-12.8455
chantaje	-12.8455
ruddin	-12.8455
▁asthma	-12.8455
▁contents	-12.8455
▁cypri	-12.8455
▁cẳng	-12.8455
▁jigme	-12.8455
▁kruger	-12.8455
▁ladakh	-12.8455
▁sardis	-12.8455
▁search	-12.8455
▁sorrow	-12.8455
▁stansted	-12.8455
▁trói	-12.8455
▁trũng	-12.8455
▁yamamoto	-12.8455
タ	-12.8455
五	-12.8455
▁ajanta	-12.8455
▁mutou	-12.8455
▁naniwa	-12.8455
▁pisano	-12.8455
▁takatera	-12.8455
▁vaimoso	-12.8455
amazigh	-12.8455
sokui	-12.8455
τ	-12.8455
▁pitsea	-12.8455
▁tsushima	-12.8455
pithy	-12.8455
▁brahma	-12.8455
▁cornus	-12.8455
▁dublin	-12.8455
▁thũng	-12.8455
▁zurich	-12.8455
▁[2]	-12.8455
▁three	-12.8455
▁active	-12.8455
▁theatre	-12.8455
glycer	-12.8455
▁7–0	-12.8455
▁evangeli	-12.8455
▁johann	-12.8455
▁nieder	-12.8455
chennaiyin	-12.8455
olimpi	-12.8455
▁1847	-12.8455
▁cherni	-12.8455
▁pliny	-12.8455
bangalore	-12.8455
sengoku	-12.8455
▁angerer	-12.8455
▁malik	-12.8455
▁patton	-12.8455
naacp	-12.8455
▁4–5	-12.8455
▁azul	-12.8455
▁oricon	-12.8455
▁truck	-12.8455
mühl	-12.8455
▁partheno	-12.8455
▁slater	-12.8455
▁sofia	-12.8455
▁stirlingshire	-12.8455
/3.5	-12.8455
ification	-12.8455
follow	-12.8455
▁evil	-12.8455
▁ulsan	-12.8455
chaetodon	-12.8455
cnbc	-12.8455
宣	-12.8455
kojiki	-12.8455
provence	-12.8455
zaobao	-12.8455
ре	-12.8455
▁25-30	-12.8455
▁bohemia	-12.8455
▁gớm	-12.8455
▁hagl	-12.8455
▁seals	-12.8455
▁urdu	-12.8455
▁5–3	-12.8455
▁6–1	-12.8455
孝昭	-12.8455
▁churchill	-12.8455
▁sauvage	-12.8455
▁audio	-12.8455
▁dubai	-12.8455
▁scoot	-12.8455
▁tyrol	-12.8455
▁sãi	-12.8455
▁hashim	-12.8455
▁loyd	-12.8455
mogami	-12.8455
/5/201	-12.8455
▁vtol	-12.8455
▁ignac	-12.8455
tlingit	-12.8456
kremin	-12.8456
▁hahn	-12.8456
zentral	-12.8456
sweet	-12.8456
sanekata	-12.8456
herald	-12.8456
ijime	-12.8456
zhou	-12.8456
▁commod	-12.8456
▁cristin	-12.8456
83–84	-12.8457
▁paste	-12.8457
hausen	-12.8457
▁bucki	-12.8458
speed	-12.8458
8-135	-12.8458
▁fauv	-12.8458
▁crown	-12.8459
évy	-12.846
omoros	-12.846
iggin	-12.846
arbor	-12.846
homme	-12.8464
▁lotte	-12.8468
aphis	-12.8468
3–3	-12.8471
一等公	-12.8471
/07/20	-12.8472
enzai	-12.8474
/03/	-12.8477
▁formic	-12.8477
transform	-12.848
unanga	-12.8481
dfp	-12.8493
▁tomohi	-12.8498
7,6	-12.8516
▁norw	-12.8521
salmon	-12.8524
1836)	-12.8528
▁hilar	-12.8539
append	-12.8547
hyme	-12.8551
crush	-12.8566
1750)	-12.8582
1737)	-12.8584
▁nobuhi	-12.862
▁8/19	-12.8631
▁macroscelid	-12.8673
repre	-12.8738
csuc	-12.8797
marxist	-12.8854
during	-12.8927
ipur	-12.8936
armor	-12.8957
leigh	-12.8979
appid	-12.9029
jeom	-12.912
shayk	-12.9123
▁masahir	-12.9165
4-8	-12.9226
nanda	-12.9244
oyes	-12.9295
himik	-12.9392
▁9/201	-12.9419
stead	-12.9482
1776	-12.9638
ouin	-12.9916
arika	-12.9963
ennett	-13.0161
10-2016	-13.027
itsuka	-13.0273
movies	-13.051
ầ	-13.0558
westfalen	-13.087
café	-13.087
global	-13.087
stellatus	-13.087
dragon	-13.0871
enisei	-13.0871
•	-13.0872
tiệm	-13.0872
callback	-13.0872
samurai	-13.0872
hibiki	-13.0872
produce	-13.0873
rapper	-13.0873
andorra	-13.0873
chicago	-13.0873
first	-13.0873
thảm	-13.0873
vườn	-13.0873
đêm	-13.0874
chịu	-13.0874
quần	-13.0874
đoạn	-13.0874
kích	-13.0874
bệnh	-13.0874
polizei	-13.0883
▁blaster	-13.0937
ocean	-13.0949
4/2020	-13.0953
/2021	-13.0953
親	-13.0955
▁kyrgyz	-13.0955
▁kazakh	-13.0955
ダ	-13.0955
▁nucleo	-13.0955
ミ	-13.0955
▁pfeffer	-13.0955
species	-13.0955
▁metallurg	-13.0955
대	-13.0955
münster	-13.0955
▁(1368	-13.0955
▁jeolla	-13.0955
▁thalasso	-13.0955
5/2020	-13.0955
arapaima	-13.0955
automne	-13.0955
blatchford	-13.0955
brachypleura	-13.0955
cctnn	-13.0955
cephalidae	-13.0955
chasmataspids	-13.0955
combretaceae	-13.0955
developer	-13.0955
economy	-13.0955
eongjeon	-13.0955
ethnologue	-13.0955
exodus	-13.0955
frehley	-13.0955
gingerbread	-13.0955
holacanthus	-13.0955
hosllanerchrugog	-13.0955
hyperpyron	-13.0955
institution	-13.0955
labeobarbus	-13.0955
lepidoptera	-13.0955
neighbo	-13.0955
november	-13.0955
perfection	-13.0955
propylene	-13.0955
pterodactyl	-13.0955
rasenballsport	-13.0955
reservoir	-13.0955
saxicoloides	-13.0955
scandinavia	-13.0955
schneider	-13.0955
shinkyokushinkai	-13.0955
sphenopalatine	-13.0955
streptocarpus	-13.0955
sylvania	-13.0955
wolgyesu	-13.0955
æ	-13.0955
ụgbọ	-13.0955
▁1877–78	-13.0955
▁1882–83	-13.0955
▁1884–85	-13.0955
▁1929–30	-13.0955
▁1930–31	-13.0955
▁1931–32	-13.0955
▁1933–34	-13.0955
▁1935–36	-13.0955
▁1936–37	-13.0955
▁1937–38	-13.0955
▁1938–39	-13.0955
▁1946–47	-13.0955
▁1947–48	-13.0955
▁1948–49	-13.0955
▁1949–50	-13.0955
▁1950–51	-13.0955
▁1951–52	-13.0955
▁1952–53	-13.0955
▁1953–54	-13.0955
▁1954–55	-13.0955
▁1955–56	-13.0955
▁1956–57	-13.0955
▁1959–60	-13.0955
▁1960–61	-13.0955
▁1963–64	-13.0955
▁1964–65	-13.0955
▁1965–66	-13.0955
▁1966–67	-13.0955
▁1967–68	-13.0955
▁1968–69	-13.0955
▁1970–71	-13.0955
▁1971–72	-13.0955
▁1974–75	-13.0955
▁1975–76	-13.0955
▁1976–77	-13.0955
▁1977–78	-13.0955
▁1979–80	-13.0955
▁1991–92	-13.0955
▁2016–2017	-13.0955
▁academical	-13.0955
▁adriatic	-13.0955
▁ainokura	-13.0955
▁airdrieonians	-13.0955
▁alauddin	-13.0955
▁ambalau	-13.0955
▁ameraucana	-13.0955
▁amstetten	-13.0955
▁ancistroclad	-13.0955
▁apocalypse	-13.0955
▁argeş	-13.0955
▁armageddon	-13.0955
▁artanema	-13.0955
▁assistant	-13.0955
▁atsutada	-13.0955
▁avenue	-13.0955
▁avicii	-13.0955
▁axiagasta	-13.0955
▁bagratid	-13.0955
▁bagratuni	-13.0955
▁barbuda	-13.0955
▁beauty	-13.0955
▁berkshire	-13.0955
▁bicalcaratum	-13.0955
▁birmingham	-13.0955
▁bodansky	-13.0955
▁brachypomum	-13.0955
▁brooks	-13.0955
▁calcutta	-13.0955
▁canterbury	-13.0955
▁capilano	-13.0955
▁caracal	-13.0955
▁carallia	-13.0955
▁cardenas	-13.0955
▁caribbean	-13.0955
▁carpatin	-13.0955
▁children	-13.0955
▁chloroflexaceae	-13.0955
▁clapton	-13.0955
▁collective	-13.0955
▁committee	-13.0955
▁compatible	-13.0955
▁comstock	-13.0955
▁cooih	-13.0955
▁copenhagen	-13.0955
▁cosmetic	-13.0955
▁cossack	-13.0955
▁cravalho	-13.0955
▁cyrtocarpa	-13.0955
▁cézanne	-13.0955
▁dalassena	-13.0955
▁dalassene	-13.0955
▁december	-13.0955
▁dehydrogenase	-13.0955
▁dharwad	-13.0955
ニ	-13.0955
ロ	-13.0955
翼	-13.0955
肅	-13.0955
μ	-13.4204
八	-13.4288
ο	-13.4288
面	-13.4288
旗	-13.4288
プ	-13.4288
監	-13.4288
동	-13.4288
ェ	-13.4288
士	-13.9288
使	-13.9288
欽	-13.9288
蘇	-14.9257
臣	-14.9258
禧	-14.9259
睿	-14.926
百	-14.9261
揮	-14.9262
我	-14.9263
《	-14.9264
豫	-14.9265
ź	-14.9266
拉	-14.9267
⁄	-14.9268
ṇ	-14.9269
{	-14.927
≤	-14.9271
ñ	-14.9272
ć	-14.9273
£	-14.9274
ß	-14.9275
ẹ	-14.9276
ỹ	-14.9277
ẫ	-14.9278
ẩ	-14.9279
ằ	-14.928
ử	-14.9281
ặ	-14.9282
ắ	-14.9283
ứ	-14.9284
ậ	-14.9285
ấ	-14.9286
ợ	-14.9287
ố	-14.9288
セ	-14.9288
仮	-14.9288
指	-14.9288
